#version: 0.2
h e
Ġ t
Ġ a
Ġ s
Ġ w
n d
Ġt he
e d
Ġa nd
Ġt o
Ġ b
i n
Ġ h
Ġw a
r e
Ġ f
o u
i t
Ġ l
Ġ c
Ġ d
e r
Ġ he
Ġ m
Ġ p
Ġwa s
o m
Ġ T
Ġ o
a y
a r
i s
in g
i l
Ġ g
i d
a t
e n
Ġ n
Ġs a
Ġh a
Ġ S
ĠT he
a n
i m
o r
o n
Ġ it
Ġt h
l l
l e
Ġ H
Ġhe r
o t
e t
i r
ĠS he
ĠH e
e s
Ġ in
v er
u t
o w
ĠThe y
c k
Ġ e
Ġ u
l d
il y
Ġ y
o o
Ġsa id
i g
Ġ r
a m
Ġb e
Ġs t
Ġ "
c e
Ġ I
Ġs he
k e
p p
it h
L ily
v e
Ġw ith
O n
Ġo n
Ġo f
r i
k ed
Ġh is
Ġy ou
Ġp l
Ġs o
n t
ver y
a d
Ġd ay
Ġth at
Ġu p
Ġ Lily
Ġpl ay
Ġha d
Ġthe y
s t
Ġw e
Ġm om
Ġf or
e l
m y
ou ld
u n
Ġ B
' s
T he
Ġl i
Ġha pp
c h
en t
it t
Ġwa nt
he r
Ġs h
ou t
Ġd o
Ġn ot
Ġ very
om e
l y
a ll
ou nd
e nd
itt le
im e
s e
Ġw h
Ġ k
Ġl ittle
Ġt ime
Ġthe re
a l
Ġn e
h t
Ġhapp y
Ġb ig
Ġ re
Ġ M
Ġ is
ĠI t
Ġs m
Ġb ut
Ġ Ċ
r a
Ġsa w
ri end
Ġf riend
Ġa n
r y
Ġa s
a ck
. "
On e
id e
a ke
' t
v ed
t er
u g
On ce
Ġl o
Ġl oo
Ġwe re
o re
! "
e c
Ġh im
Ġb o
Ġto o
ĠT im
Ġs e
Ġg o
ir l
Ġup on
Ġwant ed
Ġ j
ar d
Ġg irl
il l
Ġa re
Ġthe m
Ġ out
Ġa t
Ġthe ir
i nd
Ġs p
w ay
f u
Ġd id
u r
Ġc ould
Ġ A
he n
Ġsm il
a in
Ġha ve
ar t
Ġw ent
he d
Ġe x
r om
i c
r ound
l p
Ġn am
Ġc an
fu l
Ġfriend s
ĠB en
h ing
Ġhe lp
Ġk n
Ġa ll
Ġ J
oo d
ig ht
? "
u m
ar k
on e
Ġb ack
Ġf un
Ġc l
a re
Ġs ay
Ġl e
Y ou
Ġnam ed
Ġn o
ĠT om
Ġlo ved
o p
el t
ĠTim my
Ġ One
ou g
Ġa l
Ġs c
s ide
Ġf elt
Ġto y
i ck
Ġsmil ed
Ġm an
Ġf e
Ġas ked
Ġse e
am e
Ġloo ked
Ġli ke
Ġa round
Ġs ome
om et
u re
Ġr o
Ġbo y
Ġb r
g et
Ġw ould
Ġm e
Ġ W
Ġb ir
on g
i ce
Ġst art
s s
Ġs omet
Ġbir d
ing s
Ġf a
Ġw or
Ġa g
ad e
Ġm ake
Ġwh at
Ġt re
d d
k ing
get her
ow n
ĠB ut
Ġa way
Ġr an
a g
Ġstart ed
, "
Ġ You
ou d
Ġm ade
ar ed
i e
Ġto gether
Ã ¢
â Ĥ
âĤ ¬
Ġc o
Ġsay s
Ġp ark
Ġsomet hing
i f
Ġc ar
t her
it ed
Ġsa d
Ġp ut
Ġne w
Ġo ther
Ġp r
b le
Ġag ain
Ġf rom
Ġex c
Ġh ug
Ġm u
Ġh ome
Ġl a
e ll
Ġw hen
Ġwh o
oo k
Ġg ood
es t
ri ed
Ġf ound
Ġ L
Ġthe n
a ch
e p
Ġd ec
Ġf l
pp ed
Ġc h
a s
Ġplay ing
oug ht
Ġwa l
Ġg et
q u
all y
h at
Ġ E
Ġth ings
Ġs w
u ck
Ġg ot
p l
ou s
Ġli ked
n n
Ġe very
Ġdec id
Ġexc ited
a ve
Ġdecid ed
r o
Ġc ame
a x
Ġb l
Ġbe c
Ġd own
Ġyou r
Ġf ind
Ġc are
Ġdo g
u st
Ġsc ared
Ġon e
Ġfe el
Ġ v
Ġth an
is t
ou se
n y
Ġd ad
Ġ D
a p
ĠM om
Ġa b
ar n
ar a
way s
u e
Ġdid n
nn a
Ġg ra
u dd
Ġm y
Ġal ways
an t
Ġtoo k
er s
The y
Ġ ke
u s
Ġmom my
es s
Ġ F
f e
Ġab out
ou r
Ġl ot
Ġtoy s
Ġtre e
Ġp o
Ġkn e
Ġb all
Ġloo k
Ġw ill
nd er
Ġout side
it e
Ġth ought
ec i
en ed
Ġt a
Ġle arn
b b
is e
c hed
Ġm ore
Ġp re
Ġkn ow
Ġh o
Ġin t
ĠS am
g ed
eci al
Ġsp ecial
Ġo ld
Ġt ake
Ġs or
ĠM ax
Ġla ug
Ġp e
Ġkne w
i ve
Ġc at
m a
f ter
Ġh ow
Ġan y
udd en
a u
Ġsh ow
Ġt r
Ġmu ch
i a
udden ly
Ġsor ry
a nd
Ġs l
in k
B ut
is h
Ġr un
Ġh ouse
Ġt w
v en
Ġto ld
Ġo r
Ġs k
Ġo p
Ġha nd
Ġs un
Ġin side
Ġg ave
Ġt ried
Ġm o
Ġcl o
Ġint o
Ġwa ter
Ġpr oud
an k
Ġcould n
Ġo ver
Ġ qu
au se
at e
Ġne ver
um p
t y
ot her
ĠE very
Ġ en
Ġe at
Ġ if
a ce
Ġro om
Ġplay ed
et ter
Ġhe ard
g e
Ġex pl
Ġe ach
Ġp ick
Ġpre t
i on
Ġth is
b y
he re
d y
ĠW e
T om
a k
Ġbec ause
ĠA nna
Ġhug ged
Ġst r
Ġc om
Ġwa t
Ġg re
Ġbo x
Ġj ust
Ġn ice
il e
ĠS ara
ot h
Ġne ed
i z
M om
Ġj o
Ġof f
Ġman y
Ġl ong
Ġbe ar
Ġsm all
Ġf o
Ġb u
v ing
Ġs n
oug h
Ġlearn ed
' m
or t
in e
Ġu nt
u c
im al
Ġan imal
g ry
Ġt ry
Ġb etter
il d
s el
Ġunt il
s ed
Ġlo ve
ur t
ĠJ ack
f t
Ġ im
e m
Ġd re
Ġe nd
Ġk ind
Ġc all
Ġc le
b er
Ġfl ow
Ġa d
Ġb est
ur n
v ent
ĠH er
H e
a ut
ĠA nd
ĠS o
ar s
Ġf i
Ġp u
ad y
Ġcare ful
Ġsk y
Ġfa st
Ġg r
v es
Ġthan ked
Ġe ven
Ġbe aut
Ġ C
Y es
Ġb ra
ur p
ard en
ĠJ o
Ġg arden
Ġd on
p t
ll y
Ġc he
Ġt e
ĠM ia
Ġb y
sel f
T h
Ġlot s
i es
in y
Ġg l
Ġl oud
Ġlaug hed
Ġf am
Ġj ump
a se
Ġbeaut i
le w
Ġl ist
Ġst ill
w n
Ġbeauti ful
ĠF rom
r m
Ġh ard
Ġwa y
Ġc ome
Ġh urt
Ġw o
Ġanimal s
I t
c t
Ġr a
ĠH is
a st
he s
Ġco l
Ġu nder
ĠThe n
Ġre m
Å ĵ
n ing
Ġsa fe
Ġst ay
ec t
b e
Ġl et
Ġli ved
Ġb oth
T im
oo l
Ġc u
op le
Ġim p
Ġbra ve
Ġfam ily
Ġit s
k ay
Ġb ad
o b
Ġd an
Ġr ed
Ġst or
is hed
Ġb ook
an e
Ġtw o
W hen
Ġf in
re e
Ġpe ople
uc y
Ġsh ould
urp r
o ck
Ġcall ed
Ġ Ã¢
Ġf lew
Ġf ly
Ġp ic
ig h
Ġwal ked
Ġs urpr
Ġan gry
Ġso on
Ġf ore
ĠW hen
Ġdo ll
x t
l ed
Ġke pt
Ġcle an
Ġsh are
f ore
is ed
Ġro ck
Ġpret ty
N o
Ġd ra
h n
Ġgo ing
i p
Ġdo or
L et
Ġc on
Ġ P
Ġke ep
Ġg round
Ġsh iny
Ġop ened
dd ed
Ġad vent
um my
Ġre al
Ġn ow
Ġw ind
Ġc ry
il ly
Ġexpl ore
ag e
Ġc re
Ġst o
B en
Ġ ide
Ġbe fore
Ġno ise
Ġf r
Ġcol or
Ġt urn
ar y
le s
s o
Ġf ar
t ure
âĤ¬ â
Ġal so
Ġpick ed
Ġfeel ing
i ed
Ġwh ile
Ġe y
Ġide a
im b
o on
o y
Ġcl imb
Ġne xt
f f
t hing
Ġb ed
Ġu n
Ġw r
W hat
e et
Ġth r
Ġha s
Ġwal king
ĠL ucy
Ġsmil e
u ch
Ġpic ture
T hat
g er
ic ed
Ġtr uck
Ġno dded
Ġadvent ure
t h
Ġm a
ay be
Ħ ¢
âĤ¬â Ħ¢
k es
Ġbe ing
em ber
Ġ G
t ed
Th ank
i ous
j oy
a c
Ġclo s
t ing
Ġg ive
Ġf ood
Ġt ra
Ġloo king
Ġwa it
Ġlist en
ĠD ad
Ġsto pped
Ġbl ue
iz ed
ug ht
Ġto w
Ġrem ember
Ġb re
Ġd if
Ġa fter
Ġbr o
Ġhand s
ĠS uddenly
Ġnot iced
Ġth ink
ma z
Ġey es
Ġa maz
Ġd el
Ġwal k
a ble
Ġqu ick
Ġo wn
Ġen joy
Ġfore st
S he
Ġd is
Ġsl ide
Ġgre at
Ġe ver
Ġshow ed
Ġre pl
Ġwat ch
ir st
Ġstr ong
Ġflow ers
Ġa pp
bb it
Ġevery one
Ġimp ort
Ġwo nder
Ġr ain
Ġf ish
Ġwor k
ll ow
Ġv o
Ġa c
Ġt al
S uddenly
Ġbo at
Ġne ar
Ġst ick
Ġas k
ĠS p
Ġo kay
Ġhe ad
Ġimport ant
Ġw here
Ġsh out
Ġme an
Ġra bbit
g an
Ġr ight
Ġpl ace
Ġu s
by e
Ġs ound
bb ed
Ġquick ly
Ġy ell
Ġfo llow
Ġrepl ied
Ġu se
Ġbr ight
le ase
ĠB ob
Ġwat ched
Ġdre ss
Ġd e
fe re
an ge
Ġbec ame
d ay
Ġ N
Ġdif fere
at h
Ġm or
er ed
Ġa r
c o
Ġs ure
W e
nd ma
Ġc ake
Ġch ild
Ġh igh
Ġcu ri
Ġbe en
Ġ R
Ġm ag
ou nt
Ġst ore
Ġ our
Ġwa rm
Ġy e
a ught
Ġs qu
Ġh op
Ġfa ce
Ġgood bye
Ġfor g
m ore
Ġdiffere nt
Ġany more
Ġclos er
Ġdo es
A nna
L ook
S o
le ep
n g
Ġcuri ous
Ġc ook
Ġt ell
Ġa m
Ġvo ice
Ġn ight
it c
il a
im es
Ġp ain
ĠS ue
Ġbe l
ĠSp ot
ir ed
Ġbut ter
Ġop en
a ched
Ġfa v
Ġp a
H er
Ġhelp ed
Ġf irst
Ġfe ll
u ll
Ġcon t
S ara
ĠMom my
Ġhapp ened
Ġ z
ĠT h
Ġle a
Ġth ree
Ġse es
is s
C an
Ġk itc
Ġkitc hen
J o
Ġpu ll
Ġfi re
Ġfl o
Ġb us
Ġbird s
Ġbl ock
Ġgra bbed
Ġsw eet
A fter
Ġstor y
Ġhe re
Ġon ly
Ġk id
Ġbr other
Ġd r
Ġsa nd
un ny
Ġgl ad
Ġb it
Ġr u
Ġgra ss
Ġreal ized
pp y
at er
Ġjump ed
or n
Ġbe h
Ġm on
Ġp er
Ġdra w
Ġst op
Ġre ached
Ġc ra
ĠEvery one
Ġs ing
in s
Ġha ving
Ġc r
Ġm ess
z y
ĠD o
nt s
Ġre st
u ff
Ġb a
Ġthr ough
Ġt ri
Ġpr in
Ġat e
ĠA s
ĠJ ane
Ġso ft
Ġl ess
Ġp ap
is y
Ġre ady
Ġy ummy
w here
Ġwor ld
' re
Ġh at
ak es
Ġg ame
Ġfi x
Ġre ally
ĠL et
Ġl ady
Ġshout ed
Ġp are
Ġfav or
Ġbe gan
Ġfavor ite
Ġhim self
Ġunder st
Ġc ut
Ġt ired
ĠSara h
Ġmag ic
Ġd uck
fu lly
Ġpret end
k en
Ġu sed
Ġm um
Ġta st
at her
Ġbutter f
s h
Ġth ing
Ġd one
Ġwor ry
Ġcom ing
ig n
Ġma king
ill ed
Ġcat ch
ĠC an
Ġkid s
Ġfun ny
Ġnam e
Ġp us
ed dy
W ow
Ġse en
A s
st er
Ġpo nd
Ġlook s
Ġcar s
ĠT hat
Ġc ried
Ġf ro
Ġst e
Tim my
Ġan other
i ent
Ġto p
a ir
o lly
Ġwh y
Mom my
Ġp rom
Ġwa ved
Ġflow er
Ġb ag
Ġp art
Ġb unny
Ġha ir
Ġpare nts
Ġto uch
b o
ard s
D on
Ġpap er
Ġg i
Ġd in
Ġl ight
Ġgre en
Ġd ri
Ġc ool
Ġdel ic
Ġd ro
Ġless on
Ġho le
Ġsw im
ĠJo hn
h y
ĠJo e
Ġtre es
i ver
Ġsurpr ise
Ġyell ow
Ġremember ed
Ġbeh ind
Ġflo or
one y
Ġho ld
el y
u ed
Ġwor ked
m er
Ġf ull
Ġthan k
Ġrun ning
re l
Ġho pped
at ion
Ġs leep
and y
Ġw ished
ss ed
Ġsp ot
Ġsm ell
Ġs et
i ke
Ġblock s
Ġco ld
Ġlo st
Ġs at
Ġhapp ily
Ġre ad
Ġwe ar
Ġdo ing
Ġneed ed
Ġdre am
Ġd ark
Ġm ouse
Ġst re
Ġb ow
a isy
Ġw ood
Ġsl ow
Ġlaug h
re n
Ġbutterf ly
Ġsh o
Ġcare fully
S am
Ġt all
Ġye ars
Ġle ft
Ġ -
Ġli kes
Ġcl a
Ġsurpr ised
Ġh ill
Ġwind ow
Ġfro g
Ġsw ing
Ġenjoy ed
Ġhe ld
Ġfin ished
u it
Ġsn ow
Ġhe ar
Ġmo ve
ĠA fter
Ġbu y
en s
" .
Ġwr ong
Ġ ice
Ġper f
Jo hn
in ed
Ġfollow ed
Ġa ir
in ally
Ġar ri
Ġli on
u l
ĠBen ny
Ġfa ir
Ġher self
Ġh id
ĠI n
Ġany thing
Ġcont in
H ell
Hell o
Ġh un
Ġclo se
Ġd ir
Ġchild ren
Ġb ug
Ġfriend ly
c ess
Ġc ast
Ġre l
Ġta ble
as ure
Ġbu ild
ĠS ally
Ġa rm
Ġwonder ful
Ġforg ot
Ġm ight
Ġarri ved
d s
ie ld
Ġunderst and
Ġdelic ious
Ġag re
Ġe l
Ġt ight
Ġh ot
Ġp lease
Ġcolor s
Ġgra ndma
Ġsome one
n er
Ġs ong
Ġc ount
Ġbook s
Ġf illed
Ġg one
Ġcontin ued
Ġbro ken
Ġa ble
The n
Ġlea ves
Ġsc re
ĠN ow
Ġg ent
a v
Ġel se
ĠThe re
Ġwant s
Ġcre at
as k
s p
ĠL ila
Ġv is
Ġwa ll
l f
F rom
ĠE m
e y
Ġy es
Ġba by
uff y
Ġp ink
at ter
Ġbre ak
ro om
m an
i ch
Ġpo in
g on
Ġamaz ing
' ll
ri es
J ack
Ġm ar
Ġget ting
ĠM aybe
ic y
ĠD aisy
Ġen ough
Ġpicture s
Ġf ight
O K
Ġwh ite
ou p
Ġcom p
Ġcast le
Ġdin ner
Ġagre ed
r ow
ir rel
Ġmu s
Ġmom ent
ro ss
Ġm other
Ġstay ed
Ġf all
as h
Ġmor ning
Ġcook ies
c ed
Ġsc ary
Ġtry ing
Ġfin ally
Ġclimb ed
Ġf ur
Ġsomet imes
Ġsa il
Ġother s
Ġ K
Ġw et
Ġp i
Ġj u
Ġsmil es
Ġhun gry
ct or
Ġsqu irrel
Ġtal k
en ce
on s
Ġcl ot
Ġm et
Ġclot hes
A t
Ġbr ought
am a
is ter
r ed
o om
Ġturn ed
ĠTh is
Ġro ll
Ġperf ect
Ġdad dy
l c
Ġm akes
Ġcre am
ĠB illy
Th is
Ġfe w
Ġlist ened
or ing
Ġta il
e e
Ġevery thing
an ce
Ġwas n
Ġsp l
Ġstr ange
r ot
Ġse ar
Ġball oon
Ġbe ach
Ġpo l
Ġpu ppy
Ġjo y
Ġs it
at ed
ow er
Ġr ide
d er
H is
z z
Ġwa ited
Ġsp ark
ĠJ en
Ġth re
ĠW hat
Ġmus ic
w l
Ġamaz ed
e ver
ĠG ra
Ġal one
ĠTom my
o s
am p
pp ing
Ġvis it
Ġs illy
Ġdan ger
uck y
Ġt eddy
ke y
ot t
Ġask s
Ġp et
Ġwood s
ĠT o
op e
Ġde ep
an g
Ġh ide
et er
Ġgr ow
O h
Ġle ave
Ġs ister
Ġs ide
Ġp ie
ug g
Ġcl oud
am ed
Ġfly ing
m ed
Ġl ake
Ġpull ed
M ax
Ġfo x
Ġprom ised
Ġp at
g g
i x
ĠF l
Ġdan ce
Ġtow ards
ec es
Ġtre asure
m e
Ġs ec
Ġf ield
am es
p h
Ġpi eces
is es
Ġpl an
M aybe
u p
Ġrun s
Ġsh ared
Ġbig ger
ck et
ain ed
Ġ ve
Ġw on
Ġthink s
Ġe m
Ġla nd
Ġmor al
th y
Ġtre at
O kay
Ġown er
Ġli ving
Ġp en
Ġe le
Ġbr an
Ġgr ate
ĠA ll
Ġb ott
Ġdoll s
Ġsh ar
Ġc andy
ig g
av y
Ġpart y
Ġg u
Ġevery where
Ġgrate ful
c le
s et
Ġcu p
Ġbl ank
Ġb ike
Ġslow ly
out h
Ġpain t
Ġjo b
Ġs uch
s w
Ġbel ie
Ġwor ried
Ġm outh
Ġwe lc
ĠA my
Ġjo in
Ġblank et
Ġfast er
Ġpl ant
f ort
re t
u ally
Ġan sw
Ġbro ke
Ġm oney
un ch
l ing
i et
Ġsh ap
Ġg if
Ġre ach
Ġmagic al
Ġsn ack
Ġb ar
Ġcolor ful
i re
id ent
Ġhelp ing
as ed
Ġprin cess
Ġdo ctor
Ġch o
Ġr ace
Ġdra gon
Ġac c
Ġr iver
ĠJ im
S ure
Ġn ap
Ġpr o
Ġs ign
le ss
Ġqu iet
Ġcry ing
or m
i pped
Ġbl ack
z e
a pp
Ġmo st
o l
Ġdanger ous
Ġste pped
Ġtra in
Ġsm art
Ġat t
Ġbow l
Ġfar mer
Ġm ix
Ġhe avy
Ġp ot
Ġmon ster
e re
or ed
Ġj e
m ing
b ble
Ġtw ins
Ġwor ds
Ġac ross
Ġdir ty
e ar
Ġdis app
Ġeat ing
Ġsa me
Ġst uck
ĠJ ill
Ġclo sed
ĠM r
Ġfr uit
Ġthre w
Ġmu st
Ġtow er
Ġwould n
Ġb uck
ck ed
ĠM olly
Ġsp r
Ġh ig
Ġw in
Ġacc ident
Ġcr ay
Ġmon key
Ġcar rot
W hy
or d
Ġb ath
Ġhe al
Ġfeel s
Ġte ac
it ing
Ġb ite
e ared
H i
ask et
um b
Ġpus hed
Ġbut t
Ġto wn
ch ool
Ġp ast
Ġb asket
Ġhe art
Ġhop ed
b r
Ġwith out
Ġh it
Ġco ll
Ġcla pped
Ġp ack
Ġbelie ve
Ġst and
Ġp ers
Ġfor get
M ia
Ġs chool
Ġfair y
Ġche ered
ph ant
Ġbe e
Ġsm o
ĠFl uffy
Ġf ence
Ġl on
d e
or row
Ġc our
Ġy ard
Ġbr own
Ġch air
ĠDad dy
Ġdro ve
ra ct
Ġadventure s
Ġno ises
i er
vent ually
Ġhig her
Ġlon ely
a ss
Ġc a
Ġele phant
Ġteac her
Ġto day
or s
n ey
Ġpo cket
Ġup set
c y
ve l
Ġturn s
Ġsw ings
Ġgent le
Ġlong er
F inally
Ġw ings
Ġwelc ome
h o
Ġg ames
t s
Ġcour se
Ġb en
Ġexpl ained
Ġf ree
Ġne ck
Ġs uddenly
Ġle g
Ġj our
Ġsec ret
L ila
e ad
Ġst ar
is sed
ount ain
Ġw he
Ġd ry
Ġc orn
Ġs oup
Ġbr ing
Ġsh op
Ġin st
Ġhapp en
Ġne igh
Ġdro pped
Ġpl ac
Ġhug s
y ard
Ġtr ou
Ġpie ce
w eet
Ġm in
Ġthr ow
Ġneigh b
Ġsw am
i ble
Ġstor ies
Ġsa ng
Ġback yard
itt ing
us h
ĠEm ma
pp er
m ent
Ġw ish
Ġrock s
Ġbuck et
Ġwe ll
Ġl ate
e k
Ġn aught
Ġapp le
Ġbel ong
Ġo wl
Ġp h
c hes
Ġnaught y
c es
Ġta king
Ġor ange
Ġal ong
Ġl unch
ock ed
Ġdr ink
fu sed
un g
Ġj ar
Ġexpl oring
Ġex p
Ġc ou
Ġse a
Ġ es
Ġyou ng
b ow
Ġd ist
Ġsee med
Ġsing ing
ou n
Ġsh ook
Ġm at
Ġc aught
Ġmo ved
Ġwa r
Ġnear by
Ġp ig
Ġw ise
Ġke y
Ġsho es
Ġst ars
Ġt iny
Ġth ough
Ġwo ke
Ġto m
Ġd es
Ġm iss
Ġa f
ll o
ĠGra ndma
Ġma il
a il
ion s
ver ed
D o
c er
Ġs ick
co l
ĠTh ank
Ġben ch
Ġcar ry
ap e
Ġrel ie
Ġre sp
Ġs u
Ġn est
Ġshap es
c ing
itt ens
s y
Ġrain bow
Ġarm s
id ge
Ġbran ch
Ġk ite
Ġm ine
Ġdri ver
Ġju ice
Ġta kes
Ġbus y
Ġo b
aught er
ra id
Ġaf raid
le t
ĠM ary
Ġwonder ed
it ch
Ġm ad
w ard
Ġc ir
Ġs itting
in ing
Ġc ow
Ġm ark
es e
Ġm il
ck s
Ġstre et
A nd
Ġcom es
Ġin v
Ġaccident ally
Ġr ound
Ġno se
Ġdis co
Ġk ing
Ġfore ver
Ġ 3
L ater
Ġye ar
Ġfar m
Ġwh ist
Ġb and
Ġpe ace
Ġd aughter
Ġli ft
Ġsound s
st ing
Ġgif t
Ġst u
ĠF inally
t o
Ġe gg
Ġcut e
bb y
th day
b all
Ġexc iting
ad ow
Ġco zy
Ġf it
it y
Ġl etter
Ġp urp
ĠIn side
Ġco at
Ġw ra
Ġb oun
Ġp ower
our s
Ġrelie ved
Ġhe llo
Ġnot hing
Ġpat ient
Ġint ere
Ġhold ing
Ġlaug hing
Ġhug e
Ġjour ney
O f
Ġm ist
ĠT weet
sh ine
Ġim ag
Ġsp oon
ĠSo on
Ġswim ming
Ġg igg
itt en
Ġmil k
Ġday s
Ġsun shine
Ġli fe
Ġcom fort
Ġf ing
Ġpurp le
g ged
u ched
Ġto uched
Ġl ater
ĠC ome
ĠM ama
Ġinst ead
Ġa ct
Ġbir thday
ir t
et h
Ġ O
Ġro ad
Ġche ese
Ġin c
f ish
Ġe ar
Ġsun ny
u nt
al m
Ġre t
Ġgi ves
Ġsear ched
p ed
Ġb ought
Ġf an
Ġbre ad
Ġpoin ted
n ess
Ġany one
Ġon to
Ġbott le
bo ard
Ġpre s
Ġduck s
iz e
Ġstor m
s c
o se
Ġhop e
Ġret urn
Ġl ucky
Ġpl ane
ĠSam my
Ġtast y
Ġc ave
Ġcreat ure
Ġwatch ing
ble m
Ġgra b
Ġp udd
He y
Ġpro blem
Ġc e
Ġsmil ing
nd p
Ġr ope
Ġk ick
Ġsp o
Ġcray ons
Ġshe ll
Ġe as
Ġshar p
a ur
Ġsp id
el s
Ġme et
Ġprom ise
Ġsnow man
Ġpers on
Ġh oney
Ġdan ced
o nd
Ġpu zz
ep end
Ġintere sting
t en
Ġtal ked
Ġsand w
Ġbutt on
Ġqu est
Ġcoll ect
o g
o ve
Ġz oom
Ġtrou ble
Ġw ide
Ġc ard
Ġk iss
omet imes
itt y
B ob
Ġsmell ed
Ġsp in
Ġpres ent
Ġ ent
Ġa p
Ġlove ly
Ġapp les
Ġp ract
Ġad m
Ġwr ite
Ġbus h
Ġgi ant
ĠJim my
Ġheal thy
on t
Ġcloud s
Ġp ill
Ġsh ining
Ġg ather
iz z
Ġp ar
um ber
Ġroll ed
is a
Ġche er
Tom my
Ġplac es
G ood
Ġfr ont
ndp a
Ġput s
ow ed
Ġwh ich
Ġlo ves
Ġsa f
Ġv ill
Ġs ur
Ġp ath
ĠM ittens
ll a
Ġspot ted
u b
Ġt un
Ġh on
Ġwor m
Ġimp re
Ġcle ver
Ġsh r
Ġor gan
Ġmy ster
b ar
Ġl ay
Ġm atter
Ġfe ather
Ġtast ed
Ġw ild
Ġd i
Ġe ag
Ġz oo
Ġm ed
Ġtri p
Ġpr ot
Ġresp ect
e en
Ġb ark
Ġh or
Ġcou ch
Ġs uc
Ġth in
Ġp op
Ġwho le
L ucy
ch ing
Ġfo ot
Ġprot ect
er ly
Ġas leep
Ġp ile
Ġsp ent
ul ar
S t
Ġbuild ing
Ġdir t
ce an
Ġo cean
Ġl ad
Ġkne e
l a
Ġgo es
Ġco in
Ġspid er
Ġwear ing
bar ra
Ġm ountain
Ġpretend ed
Ġem barra
e b
n ic
E very
Ġsl id
Ġpic nic
Ġscre amed
Ġfa ces
Ġte ach
Ġph one
h ile
Ġsa ck
Ġsn ake
Ġansw er
ĠW ith
Ġse at
Ġcon fused
Ġapp eared
C ome
oo se
J im
Ġtal king
Ġgent ly
if e
Ġsa l
Ġfur ry
e x
Ġhelp ful
Ġmu d
Ġdri ve
Ġm ind
le x
Ġp an
Ġpa ss
Ġlad der
Ġsu pp
Ġo ven
Ġ ign
Ġc art
Ġpus h
I n
a le
Ġs er
Ġre c
Ġwhen ever
ar ge
Ġv al
Ġcorn er
un k
Ġw om
Ġcho col
Ġc alm
Ġspl as
Ġwom an
Ġb an
ĠH ow
Åĵ I
Ġneighb or
J ust
Ġla st
ĠG o
Ġtoo l
Ġm ach
ĠS ometimes
M olly
Ġb lew
Ġfix ed
re ad
Ġr ing
Ġfight ing
Ġfin ish
Ġwait ing
Ġwa ve
Ġsp icy
Ġforg ive
Ġt id
er t
bble s
ĠA l
Ġfe et
Ġmin ut
Ġsp read
Ġdel ight
Ġas h
Ġtast e
Ġe ventually
Ġte eth
Ġli ve
Ġembarra ssed
Ġp our
Ġhor se
Ġtom orrow
S oon
Ġrem ind
Ġbe ll
M um
Ġsc ar
Ġcook ie
Ġsmo oth
Ġrock et
on es
Ġa nt
Ġsh y
Ġcl oth
Ġfo ld
ĠEm ily
Ġchocol ate
m o
Ġtri es
ĠC h
Ġcol our
Ġst ep
op h
o ld
Ġl arge
Ġte a
Ġsong s
Ġneck l
Ġhid ing
Ġban an
ĠJen ny
Ġk itten
Ġpa w
Ġspr ay
Ġsp e
ur se
Ġro b
Ġh um
Ġp ool
Ġsh irt
Ġp le
Ġem p
Ġwas h
Ġcan n
Ġp izz
Ġemp ty
nn y
ung le
Ġvill age
Ġcreat ive
le br
Ġj ungle
Ġgre w
Ġbug s
Ġtight ly
Ġtid y
al s
get able
Ġcann ot
ĠS t
d ge
Ġc oo
Ġkn ocked
Ġve getable
Ġwhist le
Ġso l
Ġre p
Ġce lebr
ump y
at o
h nny
ĠT V
d en
Ġch ick
M y
Ġru de
Ġw ore
Ġtr ust
Ġh ar
ĠS ome
air s
Ġbar ked
Ġrob ot
Ġw ip
Ġpeace ful
N ow
Ġspark ly
Ġpudd le
Ġneckl ace
g round
Ġhe ars
Ġch ased
ig hed
ĠEvery where
Ġpizz a
ĠP lease
Ġstre t
Ġs el
Ġst ir
ĠJ ust
Ġme ant
ĠL e
n ed
Ġb al
Ġmo on
Ġm aybe
Ġg un
Ġst ra
Ġpuzz le
Ġhid den
Ġp in
Ġn et
Ġsa ve
i an
Ġtreat s
Ġg en
Ġme adow
Ġcarrot s
Ġ On
in ted
l ower
er a
bo x
Ġm ot
Ġstick s
Ġsnack s
d le
Ġcar ried
Ġm issed
ĠThe ir
g ly
ust r
Ġfor ward
ul t
Ġse ed
Ġfl ut
Ġtell s
Ġspl ash
Ġa v
Ġgr oup
Ġs our
Ġb at
Ġcra b
Ġprin ce
Ġmach ine
Ġshe lf
Ġb er
ĠJ ake
Ġcle ar
Ġu gly
Ġstr ing
Ġsel fish
Ġjump ing
Ġdisapp o
Ġ '
ir d
D ad
ĠT eddy
au l
Ġgo ld
ig er
Ġle m
ell y
k in
Ġfr ustr
Ġlea f
Ġb urn
Ġknow ing
Ġgr ay
Ġst ood
ĠL isa
y ing
Ġro ar
Ġyell ed
Ġpol ice
Ġland ed
Ġleg s
P lease
itt er
Ġshar ing
mo st
Ġhon est
Ġp ir
Ġcir c
at or
Ġst one
eter m
h in
Ġwh is
Ġbl ow
Ġd eterm
ĠW hy
ĠM um
ĠTo gether
Ġstand ing
Ġpl ate
Ġdre w
Ġbre ath
Ġal most
Ġg ar
Ġno ds
v ous
Ġfan cy
Ġfrustr ated
Ġn umber
Ġsee k
St op
Ġdisappo inted
Ġt est
Ġsleep y
T o
or ry
if f
Ġthe se
it al
M ama
a king
The re
u ce
Ġfe ar
Ġscre am
Ġpower ful
Ġmyster ious
Ġfe ed
Ġpill ow
B e
s er
Ġh ours
Ġgen er
Ġpol ite
ĠB r
ĠA nn
Ġho sp
Ġf il
Ġc ro
p ack
Ġhosp ital
Ġl ine
Ġg as
Ġje w
Ġmed ic
Ġash amed
f fe
Ġplant s
Ġc ries
Ġdec or
ĠE ven
eci ally
Ġn er
ot e
et s
Ġre g
ĠP eter
Ġreturn ed
iss ors
u al
iz zy
Ġunderst ood
Ġshe ep
Ġsc issors
Ġmedic ine
Ġner vous
Ġwhis p
ĠD on
Ġtw irl
ens ive
Ġexp ensive
Ġspo il
p ecially
on y
Ġsh ore
Ġpack ed
Ġes pecially
s ist
Ġscar f
os aur
Ġb ored
ĠB e
Ġp ay
Ġdan cing
Ġpa ssed
Ġsandw ich
Ġvegetable s
Ġn ut
Ġta ught
Ġv an
Ġgar age
Ġsa ved
Ġpo or
Ġgr umpy
us ie
Ġclos et
l ight
in a
Ġp ri
Ġbec ome
Ġhe l
Ġm ummy
Ġru ined
Ġsc r
Ġta ken
Ġfing er
Ġg ate
' d
Ġdr um
Ġcomfort able
Ġf ill
Ġmess y
id dle
Ġc and
ĠR ex
Ġdin osaur
Ġso ld
Ġbed room
Ġeas y
Ġon es
Ġex am
Ġgener ous
oo p
Ġple ased
Ġas king
an o
Ġcla ss
Ġsuc cess
y m
Ġw is
Ġyour self
J ane
im p
Ġwor king
Ġdeterm ined
Ġsh ip
Ġpr ay
Ġgl ue
Ġf ig
Ġho pping
Ġgigg led
Ġsail ed
Ġb oring
Ġst uff
Ġball s
ĠLe o
Ġmot or
Ġc ri
Ġwa gged
Ġv ase
Ġgl ass
Jim my
Ġk issed
W here
Ġh ur
Ġmo v
ĠK itty
Ġmist ake
Ġof ten
Ġ OK
Ġs ighed
at es
Ġd est
Ġplay ground
Ġexc ite
Ġes c
Ġminut es
er p
Ġtr ue
Ġwhe el
Ġle ad
Ġbr ush
ĠJo hnny
Ġche st
Ġche w
Ġansw ered
Ġwa ves
Ġwe ak
Ġcl own
Ġboy s
Ġgather ed
in ess
Ġf ake
Ġsp end
Ġdr op
Ġthank ful
ill i
Ġte ars
Ġr ad
Ġ Z
m b
Ġt ick
Ġm iddle
sel ves
Ġcont ent
Sara h
Ġha ng
Ġj elly
Ġte am
a pped
ot s
Ġe ld
Ġget s
us hed
Ġexcite ment
Ġc ap
Ġquest ions
Ġlem on
Ġegg s
Ġlo ck
W ho
Ġt ent
ar l
Ġfl ag
Ġsk ipped
Ġfr idge
i pp
Ġch ange
Ġsmell y
Ġwr ote
Ġr id
Ġdraw ing
Ġl it
Ġrel ax
Ġa dd
ll ie
Ġfruit s
Ġdisco vered
oo f
ag ed
S orry
Ġkn ight
Ġbr idge
Ġs ight
et e
ĠB l
Ġbath room
The ir
Ġbo ard
Ġmat ch
Ġm ir
Ġdog s
A re
Ġkn ife
Ġshow s
Ġcl ap
Ġla zy
Ġfl uffy
Ġqu een
Ġwo lf
Ġt ag
Ġs il
Ġco vered
ĠBr own
qu e
Ġche ck
Ġsweet ie
J ill
Ġfam ous
Ġmight y
or k
ce pt
Ġb ake
Ġor d
Ġpick s
Ġdr ank
Ġdist ance
Ġm ic
Ġan g
Ġno d
ell a
Ġdisapp eared
i pper
Ġl ying
ĠA t
Ġde er
r or
Ġwa nder
Ġbo ss
Ġcat erp
Ġtow el
Ġcr own
Ġcaterp ill
M e
us ual
Ġun usual
Ġwalk s
Ġf re
Ġm ap
Ġso ap
Ġcall ing
Ġeag er
t i
Ġb one
Ġ ind
Ġf is
Ġmo ving
Ġsho ot
Ġ ed
Ġse ll
Ġdec ide
Ġeld erly
o bby
ĠI f
Ġlo se
Ġst ones
in ation
Ġb orrow
Ġco ver
Ġd ig
Ġd ish
el p
Ġclean ed
bo dy
Ġsplas hed
at ing
S ally
Ġwe ek
Ġgl ow
Ġcra wl
Ġc age
art h
ĠE nd
Ġc her
im ed
w ork
umb led
Ġinc red
Ġh unt
Ġfeather s
Ġoff ered
Ġbanan a
as ing
Ġcaterpill ar
Ġyour s
Ġkind ness
Ġf ather
al ous
Ġco ins
Ġey e
Ġju icy
Ġbr illi
Ġje alous
Ġbran ches
Ġt ape
Ġc am
Ġco st
Ġbott om
Ġorgan ized
Ġmir ror
Ġl amp
Ġbo dy
Ġbrilli ant
Ġto ug
Ġr are
f ast
Ġt ie
Ġcra w
Ġh orn
Ġth ick
Ġcraw led
Ġd epend
Ġhurt s
Ġtun n
p ort
Ġ No
en ny
Ġme asure
Ġcolour ful
Ġbal ance
H elp
Ġbu bbles
Ġbreak fast
Ġimpre ssed
Ġli cked
Ġex t
Ġher o
ug ar
Ġtw ist
ol og
Ġincred ible
Ġt iger
Ġf ool
Ġr ough
Ġjo ke
Ġc ross
Ġon ce
Ġtruck s
Ġwa gon
Ġf ine
Ġli br
Ġbox es
Ġtoug h
Ġadvent ur
Ġsmo ke
Ġhappen ing
Ġap olog
a ppy
b in
Ġman aged
Ġca bin
Ġs ugar
il t
am ond
?" .
Ġfl ash
Ġreal ised
Ġfav our
Ġb itter
Ġtr unk
Ġadventur ous
H ow
Ġwra pped
h ip
ra g
Ġno isy
Ġch ase
Ġjo g
Ġfall s
Ġflut e
ĠBl ue
M ummy
Ġa w
Ġa dded
Ġs ugg
Ġfavour ite
Ġsugg est
S p
Ġd izzy
ĠS usie
Ġm elt
Ġo k
Ġdi amond
Ġrec ord
Ġhar m
Ġmix ed
Ġcirc les
Ġfool ish
A l
Ġsun f
Ġmark et
Ġp ump
Ġac cept
l ies
Ġwa nd
Ġlo g
Ġj am
ur ed
Ġgu ess
Ġsaf ely
l and
y al
ke ep
Ġloud er
Ġext ra
or y
Ġwor d
Ġneed s
Ġar g
Ġlift ed
ed ient
er y
at ely
ĠM ark
Ġcheer ful
Ġt urt
ĠS n
Ġsh ark
Ġj ack
Ġmag n
Ġdepend able
Ġt er
Ġp il
Ġe ars
Ġpoin ting
ugg led
Ġdream ed
Ġwra p
Ġber ries
Ġmom s
Ġagain st
Ġgra ndpa
Ġgr own
Ġjew el
ir a
Ġpe e
Ġgi ving
Ġfig ure
S ue
Ġha m
Ġgra ce
Ġwe al
Ġfr own
W ell
Ġsw an
Ġbag s
Ġmov ie
Ġtw ig
Ġdream s
Ġballoon s
Ġbelong ed
i que
he ad
om ed
Ġlearn ing
Ġstrong er
la imed
G ra
Ġdo lp
Ġed ge
Ġexc laimed
Ġy arn
Ġsw ord
Ġsl ipped
Ġun ique
Ġsear ch
Ġlo yal
Ġch oose
em o
Ġhat s
Ġsh ake
ra ge
Ġloud ly
Ġenjoy ing
f ic
o ppy
Ġhapp iness
Ġsp un
ia ble
Ġob edient
Ġtool s
an ut
an ged
Ġmar ble
ĠMr s
re ady
Ġsqu ee
Ġlaugh s
Ġr ich
Ġwall s
Ġle an
ĠE lla
Ġte le
Ġrel iable
Ġcam era
u nd
Ġf our
ĠF red
e xt
i v
at ure
Ġal ready
Ġmo d
Ġclean ing
Ġun l
Ġdif fic
Ġang el
Ġter ri
o ot
ĠM y
Ġcl ay
Ġbu ll
Ġmean s
Ġuse ful
Ġcray on
B illy
Ġgo at
ip e
Ġpain ting
Ġbutt ons
g y
ent ion
He re
Ġb arn
ag es
Ġus ing
Ġcomp et
Ġstra w
ĠL ittle
umb ers
Ġbl oom
Ġstu bb
Ġind epend
Ġtunn el
Ġturt le
Ġt ank
Ġhelp s
Ġsc are
Ġcir cle
Ġdiffic ult
c il
Ġn orm
Ġthought ful
Jo e
Ġpen cil
keep er
Ġth u
Ġfi er
Ġfr ight
Ġbus hes
ĠTweet y
Ġpe anut
Ġpain ted
Ġno sy
Ġsound ed
z ed
Ġt imes
Ġg uit
Ġstre am
Ġg em
Ġwh ale
Ġoff ice
Ġcount ed
Ġdo ve
Ġre f
Ġsk in
Ġba ld
Ġpar rot
Ġli z
Ġcompet it
Ġstubb orn
A my
Ġbird ie
Ġfier ce
w ards
Ġto ast
ad o
ĠB u
Ġknow s
y e
Ġr ug
Ġis land
ĠWhen ever
Ġinv ited
Ġweal thy
Ġnorm al
Ġc op
Ġsay ing
Ġsw e
Ġexpl ored
Ġjo ined
c ient
j ect
Ġf rag
Ġ icy
or ge
Ġso ar
Ġwe ird
Ġnot ice
Ġcra ck
Ġindepend ent
Ġn umbers
Ġsunf lower
Ġpo st
Ġmo le
Ġbrother s
Ġdes ign
Ġpir ate
in ary
er ry
Ġgra p
Ġboss y
Ġf at
Ġsmall er
Ġhard er
ous es
Ġbu ilt
Ġspoil ed
in es
Ġst airs
Ġan cient
Ġsee m
Ġpre p
ĠTo day
Ġguit ar
Ġst umbled
Ġlight s
Ġmar ch
Ġchick en
Ġf ountain
Ġsa uce
Ġst ri
Ġro de
Ġen orm
Ġpick ing
Ġbe et
Ġca ct
Ġval u
Ġesc ape
Ġfrag ile
Ġenorm ous
Ġh ouses
Ġre sc
Ġpour ed
Ġseed s
Ġfre sh
Ġs uit
Ġch ar
ĠP ete
Ġho se
Ġen vel
Åĵ Let
Ġremind ed
it her
Ġp ow
Ġme m
up id
Ġb ump
Ġc udd
ir p
Ġfor k
Ġtr ump
Ġproud ly
Ġkind s
Ġboun ce
Ġpract ice
Ġway s
Ġpen ny
Ġc ity
Ġpe pper
Ġsal ad
ĠAl ice
Ġcost um
Sp ot
Ġfright ened
a id
ac he
Ġsear ching
Ġcho se
Ġfing ers
Ġshell s
Ġadm ired
Ġsol ve
Ġcact us
Ġt ummy
Ġwa ke
Ġha lf
Ġth irst
Ġr oof
Ġshow ing
ol a
Ġdelight ed
n a
Ġc one
Ġd ull
an ger
d om
Ġn urse
al k
ars h
Ġboat s
Ġbar ber
e orge
Ġbe ak
Ġst age
Ġst upid
Ġexcited ly
Ġab ove
ber ry
Ġstu dy
Ġb atter
Ġsp ace
Ġsuggest ed
Ġliz ard
Ġsh one
Ġcomp ass
Ġreg ular
Ġflash light
v ice
Ġh oop
Ġc ere
Ġlo cked
Ġsp illed
Ġshap e
Ġatt ic
Ġterri ble
Ġto oth
ĠN emo
Ġvalu able
Ġtrump et
t ime
ar ry
Ġar row
re ss
Ġp ant
Ġe arth
Ġy et
ĠB ella
ill ie
Ġche ap
ĠBob o
Ġdes k
Ġkick ed
Ġser ious
Ġsuccess ful
Ġthirst y
Ġl ow
ĠD ave
E m
he t
in al
Ġcl um
Ġla b
Ġscr at
Ġor ig
c om
Ġo w
Ġr at
Ġsto ve
c orn
Ġav o
Ġenvel ope
Ġw itch
ĠM ummy
Ġthem selves
Ġimpre ss
Ġ er
Ġs on
ĠW hile
ag het
Ġcom b
Ġbright ly
Ġstop s
Ġthu nder
aghet ti
Ġh ay
Ġbe es
Ġst amp
ie w
Ġla w
Ġra ced
Ġdream ing
Ġscre en
ĠM ar
Ġcare less
Ġsn iff
Ġorig inal
Ġwas hed
Ġsp aghetti
ĠYou r
Ġch anged
Ġv iew
Ġwip ed
Ġ U
ut h
Ġend ing
Ġstick ers
Ġhel m
Ġr ushed
ĠD ucky
Ġdelic ate
Ġwar ned
Ġbeet le
Ġf lex
Ġm is
g est
i ence
is k
Ġth ose
Ġy og
Ġcar p
ber ries
Ġlea ving
Ġste al
Ġpers ist
Ġcompass ion
Ġclum sy
Ġto r
Ġbig gest
!" .
Ġtra vel
Ġde ad
oom y
Ġpop corn
Ġd ough
Ġbe an
Ġfind ing
Ġen c
Ġpump kin
Ġ ing
is ion
Ġsn e
Ġtom ato
Ġdisco ver
Ġw ire
an ny
Ġlibr ary
W hile
ur ing
ro be
Ġgra nd
Ġsn ee
Ġdel iver
Ġcomp let
red ient
Ġgrace ful
Ġing redient
Ġme al
Ġsor ts
Ġun k
Ġtell ing
Ġcere al
Ġkn ock
Ġun cle
Ġimag ined
Ġear ly
Ġpee ked
Ġt ask
âĤ¬â Ģ
Ġtra p
Ġhair y
Ġmiss ing
Ġcount ing
Ġingredient s
Ġad vice
Ġpu p
up er
Ġjack et
Ġm el
Ġsh iver
Ġz ip
Ġhum ble
Ġfor th
Ġstr anger
Ġsqu are
Ġdoes n
Ġpa le
Ġgu ard
Ġdest ro
ĠB obby
Ġflex ible
Ġs udden
Ġh ipp
il ty
Ġplay ful
Ġdri ving
Ġgu ilty
Ġpig e
Ġa unt
Ġquest ion
Ġthin king
Ġwhisp ered
Ġimpress ive
Ġc ards
Ġnice ly
Ġjo lly
Ġcre ate
Ġopen s
Ġcoll ar
Ġcarry ing
Ġslid es
Ġspe ed
n own
Ġc ur
Ġall owed
co d
Ġtwirl ed
Ġhand le
Ġprin t
Ġspark led
Ġhunt er
ill a
Ġbra ce
Ġstick er
Ġpop ular
u d
Ġc ush
Ġu mb
em ent
Ġru b
ho st
Ġumb re
f a
Ġt ap
Ġt ied
Ġs ink
Ġan x
Ġen v
Ġru bb
ation s
Ġb ase
Ġdis g
Ġru bbed
com fort
b led
Ġfriends hip
Ġcarp et
t ter
Ġun comfort
Ġcoo king
Ġchar ming
Ġpersist ent
Ġdisg ust
Ġuncomfort able
ar ian
Ġg um
Ġg ira
Ġsh ocked
ĠR ose
Ġhold s
a wn
Ġw ing
re am
Ġg host
Ġre fused
ell ig
ĠR ed
Ġper m
Ġmet al
Ġanx ious
Ġint ellig
Ġbutterf lies
Ġdolp hin
Ġd ust
Ġsc atter
Ġset t
Ġcro cod
Ġgas ped
Ġunk nown
Ġp atter
Ġsc oot
Ġen g
Ġcomp ut
Ġpat ch
Ġpant s
l oo
ar oo
Ġne at
ug ged
ang aroo
Ġspin ning
Ġn ature
Ġshe l
Ġk angaroo
Ġch asing
Ġcelebr ate
Ġpatter n
Ġl ed
Ġmo der
Ġpast a
Ġwhe els
Ġnam es
Ġtr uth
Ġord inary
Ġham mer
ÅĵLet Ã¢
Ġhipp o
Ġm ask
Ġsur f
Ġtor n
Ġenc ou
O w
Ġre sist
Ġco co
Ġimp at
ĠGra ndpa
Ġcoco a
S ee
Ġg oose
Ġst at
ĠA lex
Åĵ It
Ġph ot
ĠE llie
Ġac orn
udd y
Ġperf orm
e er
Ġb ent
Ġp and
Ġo tter
ĠK im
Ġgrow ing
Ġimpat ient
Ġm ath
ic hes
ĠW h
Ġsk ip
Ġsn uggled
Ġcra zy
Ġsleep ing
ffe e
Ġpri ze
Ġharm less
Ġmoder n
r ay
Ġo at
or ant
Ġsh ine
Ġre ce
Ġsc ale
Åĵ What
Ġfire man
Ġcr ane
Ġrest aur
Ġmagn et
Ġrestaur ant
Ġbeaut y
Ġtra sh
Ġwindow s
Ġspl it
Ġatt ract
Ġpot ato
Ġdestro y
ĠHe re
Ġre ind
ĠF r
Ġhand ed
Ġun pack
Ġsho e
Ġplac ed
Ġintellig ent
ĠM ike
ĠL ook
Ġspo ke
Ġcri cket
G o
ll ip
Ġcompassion ate
Ġdisgust ing
llip op
c ut
Ġso fa
Ġumbre lla
Ġt em
Ġa head
Ġlo ad
Ġlo llipop
Ġstart s
n oon
Ġs uper
Ġafter noon
Ġdraw er
Ġwhe at
Ġdist ant
Ġsandw iches
Ġcand le
Ġwa ff
ĠS m
Ġy awn
Ġign orant
in ce
Ġch ance
ĠF in
ĠC l
ip s
ac hes
Ġtri ang
ĠSn ow
Ġbrace let
Ġreind eer
i kes
o e
Ġd ug
Ġhe dge
Ġru les
Ġcount ry
Ġspr ing
oph one
Ġpige on
a by
Ġh ook
Ġsh ield
Ġre co
Ġfl our
Ġtr op
Ġclo ck
Ġb in
Ġp urse
Ġsh ut
Ġco ffee
Ġcouldn Ã¢
Ġsupp ort
Ġrest less
Ġhun g
Ġcup board
Ġt ire
Ġh arsh
Ġc ord
Ġo l
Ġj ug
Ġor der
Ġgif ted
Ġmail box
ĠTweet ie
Ġtrop hy
Ġs ym
er able
Ġm ay
ic t
us ed
Ġjump s
oph ie
Ġnot e
Ġsad ly
Ġcat s
lc ano
Ġshr imp
Ġsil ver
Ġmis erable
a f
Ġs end
Ġsh adow
ic es
Ġmu sh
Ġpretend ing
cy cle
Ġfil m
Ġcrocod ile
g u
Ġa x
Ġit self
Ġle op
as er
ĠP olly
gg ing
Ġeng ine
Y ay
c u
i bb
s hed
Ġc amp
bo l
Ġfur ther
Ġcou rage
Ġpract iced
Ġhur ry
Ġmel on
Ġmu ff
Ġany where
Ġimp ro
Ġob ject
Ġcomput er
Ġsym bol
g n
Ġb ri
Ġf u
Ġm ill
Ġv ine
uc t
Ġtri ck
Ġcreature s
Ġgo al
Ġcom pl
Åĵ Yes
Ġtow ers
Ġje ep
Ġent h
al ed
Ġro se
Ġpain ter
Ġrep e
Ġr ice
Ġst ack
Ġcool er
Ġread ing
Al ice
Ġenv ious
Ġp ony
ĠS andy
Ġst ation
Ġpar ade
Ġwis hes
a z
Ġneed le
Ġcry st
Ġforg ave
Ġcart oon
ir on
st ri
Ġk ay
ĠA re
Åĵ That
ĠTo by
Ġtreasure s
Ġstret ched
Ġax e
Ġenth us
Ġre ward
Ġnow here
Ġhelm et
Ġattract ive
ri c
Ġj et
Ġhelp less
Ġla ser
Ġold er
ĠG ive
Ġbright er
Ġsec ond
Ġtrou bled
Ġletter s
Ġswe ater
Ġo y
Ġsc old
ĠE ventually
Ġmess age
Ġpast ry
Ġfoot ball
c ream
Ġt en
Ġbad ly
Ġtra ck
Ġpack age
Ġval ue
ĠBrown ie
Ġcompetit ive
Ġcush ion
Ġscoot er
Ġpand a
Ġpil ot
Ġreco gn
Ġmush room
Ġthe ater
Ġp or
ĠT r
Ġso ck
Ġal ert
ĠW here
Ġpre ssed
Ġgl oomy
Ġtri cks
Ġvis ited
Ġgigg le
eb ra
Ġsal t
Ġfear ful
Ġmic r
Ġha ll
ht ub
Ġsp ell
Ġany way
ĠP e
Ġband age
Ġhum an
or able
Ġbe ep
Ġsw itch
Ġte ar
ĠP aul
Ġshout s
Ġde af
Ġadm ire
Ġbat htub
Ġer aser
R e
e f
ke let
Ġvo lcano
Ġz ebra
Ġpen gu
Ġbar rel
Ġcow s
Ġmicr ophone
or illa
Ġen er
Ġthre ad
Ġswing ing
Ġro ared
Ġra ven
Ġboun ced
hin o
Ġsold ier
Ġavo c
Ġleop ard
st airs
Ġstart ing
Ġtr ay
Ġstat ue
Ġs ize
Ġh ive
op us
Ġho les
Ġstr ugg
ct opus
ĠP at
Ġob ser
Ġnut s
Ġmod est
isk ers
ĠSm ith
c i
y ear
Ġs ent
ĠL ola
Ġpe ach
Ġad orable
Ben ny
Ġsqu ash
eb ook
Ġstep s
Ġrid ing
kelet on
M ary
Ġo ctopus
ck ey
Ġnot ebook
Ġho ckey
Ġrespect ful
Ġc urt
Ġli p
Ġsh aking
Ġback pack
Ġch ain
Ġcurt ain
Ġa nts
Ġf ive
Ġm op
Ġg orilla
Ġqu ar
Ġbeh ave
Ġhair cut
Ġwall et
Ġshop keeper
cer os
Ġfil thy
stri ch
hino ceros
Ġe ither
Ġu r
ce ed
Ġbo ots
Ġpull s
Ġtri pped
Ġpap ers
Ġstir red
G ive
I f
Ġp ad
ĠM andy
Ġno body
Ġsun set
Ġexpl ain
Ġche cked
Ġsand box
c col
ar nt
Ġle arnt
Ġsor t
Ġav ail
Ġdecor ate
ccol i
er c
Ġm ug
Ġp un
Ġgo lf
Ġme as
ĠG eorge
ĠR o
Ġpus hing
Ġmotor cycle
Ġresc ue
Ġcryst al
i pping
Ġr hinoceros
Ġsome where
Ġv est
Ġpe bble
Ġar t
Ġlight ning
Ġsail or
Ġcoo ked
Ġpow der
i est
Ġst ared
Ġsh ort
ie f
Ġcla pping
Ġroll ing
Ġgira ffe
Ġpor ch
Ġs keleton
Ġd ess
ĠB unny
Ġv i
ĠEvery thing
Ġjo kes
Ġexp er
s es
Ġb et
re nder
Ġinc l
Ġunl ock
Ġavail able
re ci
Ġc omet
ĠB uddy
sel y
Ġtra ins
Ġdis hes
Ġpoin t
Ġorgan ize
Ġsuc ceed
Ġkay ak
p ar
Ġhapp ier
se um
Ġex erc
Ġle ash
uck ed
Ġqu ite
en ry
oo ped
Ġst om
Ġhad n
Ġse par
Ġla und
ast ic
Ġlisten ing
os ie
Ġbark ing
Ġpaw s
Ġfrown ed
h ood
u be
Ġt ur
Ġto il
el ery
Ġmu seum
Ġcol ours
Ġclimb ing
Ġapp reci
Ġcomplet e
Ġtriang le
Ġc ase
Ġwe ather
Ġse al
um mer
Ġpe ek
Ġun h
Ġz ipper
Ġdess ert
Ġlaund ry
n ight
ĠS h
Ġcan e
Ġbro ccoli
ĠJoe y
L ittle
in king
Ġre ef
ĠMar ia
ĠWh iskers
u bby
Ġ iron
Ġput ting
Ġclo sely
Ġpus hes
Ġmonkey s
Ġsur render
J enny
c ast
Ġp ipe
Ġy ach
Ġsp ir
Ġbre at
Ġlion s
Ġblow ing
c ome
i o
Ġs le
Ġp ed
ur b
Ġmar ched
Ġdist urb
Ġspe ak
Ġtur key
Ġtoil et
B ye
a ked
g es
r on
Ġb icy
Ġfind s
Ġsk ill
Ġdraw ings
Ġbark s
Ġlive ly
Ġstuff ed
he art
Ġn ail
Ġre ver
ĠAnd y
Ġpa ir
Ġsand cast
Ġnap kin
Ġend ed
Ġdan cer
Ġpol ish
Ġcostum e
ĠSnow y
Ġyach t
Ġo strich
an ic
Ġin k
Ġfor t
Ġsoft ly
Ġm ild
il ing
Ġr ibb
ch anic
ect ed
Ġrain ing
ol in
g s
v ator
Ġt ube
Ġl id
Ġo il
Ġcl ub
Ġch ubby
Ġun iver
Ġapp l
Ġthank s
Ġin f
ec ause
Ġme chanic
ĠW ill
pl ay
Ġcr ow
Ġpi ano
ĠGra ce
Ġele vator
Ġbasket ball
aul if
Ġbu bble
Ġhop ing
Ġbel t
Ġmix er
Ġstri p
Ġunh appy
Ġc aulif
is on
Ġgl ove
Ġair port
Ġspir it
Ġw ife
Ġb ikes
Ġh ut
it es
Ġin sist
Ġpre ss
Ġju dge
Ġcup s
Ġwelc omed
Ġfr ame
Ġmag az
Ġgrab s
Every one
Ġdrop s
Ġlean ed
ed y
Ġm ama
Ġth ief
st ic
Ġgrap es
âĤ¬âĢ ľ
Ġquar rel
ma nd
Ġeven ing
Ġpro v
Ġrep air
Ġbase ball
Ġtem p
w s
Ġc elery
ĠM illie
Ġfa ctor
ia stic
Ġbu zz
Ġimag ine
Ġrad ish
arl ie
Ġapolog ized
Ġsne ak
Ġenthus iastic
Ġoy ster
Ġt ub
Ġl uck
Ġm en
Ġr ag
Ġdis play
Ġgi ven
Ġcount er
Ġbreak s
Ġcher ries
Ġshel ter
ĠB ear
Ġmu le
Ġdidn Ã¢
Ġmar ry
Ġve il
Ġzoom ed
Ġfactor y
a ff
a zz
z zy
ĠB ill
Ġfis her
Ġbicy cle
Ġl end
Ġsh ade
Ġfeel ings
Ġener gy
Ġpo em
Ġbu l
Ġhop es
Ġfrog s
Ġcaulif lower
im ney
Ġro d
Ġpr un
Ġch imney
Ġbear s
Gra ndma
D aisy
Ġf urn
it ure
Ġwe ep
Ġpo le
Ġstret ch
Ġfurn iture
Ġg ym
Ġplay er
ap a
Ġra ft
Ġma ze
Ġpa id
Ġbul b
en se
an y
Ġst aff
ch air
Ġsh akes
ic er
ipper y
c cer
Ġd ive
Ġso ccer
Ġli ves
Ġk itty
ro d
Ġint rod
Ġsl ippery
Ġche ek
Ġatt ention
Ġneighb our
Ġshe et
Ġnew s
Ġtra il
Ġsmell s
Ġfall ing
Ġperfect ly
Ġphot o
Ġvi olin
e ath
g en
Ġb ur
Ġp ine
Ġkn ot
ĠJ erry
Ġch irp
Ġqu it
ĠR u
ĠR osie
Ġmar ried
Ġbanan as
Ġs ummer
Ġl ang
Ġp age
Ġli e
Ġfire work
Ġsweet heart
Ġcri b
Ġlang u
Ġl ime
Ġon ion
Ġre ve
Ġarm chair
Ġspr ink
Ġbelong s
Ġcard board
Ġgold en
Ġcabin et
a it
l ow
m en
Ġs ir
ar ing
Ġg ro
or ies
Ġshould n
Ġw ool
ĠS ophie
ĠW ould
ĠL ee
Ġtra ve
Ġstick y
Ġpudd les
Ġfield s
Ġtun a
Ġchick ens
b ul
ĠS ee
st ead
Ġscold ed
in arian
Ġsw ung
Ġv ide
Åĵ You
eter inarian
. .
Ġthe rm
Ġso il
Ġstra ight
Ġburn ed
Ġavoc ado
e ve
Ġher b
Ġr ot
her o
omet er
Ġfl ies
Ġv eterinarian
Ġpre vent
iz es
ree ze
Ġdis ag
Ġpir ates
Ġfisher man
w een
Ġno vel
au d
Ġoff er
Ġsho vel
Ġcreat ed
Ġpet als
Ġjour n
Ġimag ination
Dad dy
Ġsuper hero
Ġbet ween
Ġmeet ing
Ġclass room
Ġglow ing
h ic
Ġpl astic
Ġtw ink
Ġop era
Ġve hic
Ġking dom
Ġmist akes
Ġmem ories
Ġtherm ometer
C h
Ġb le
Ġc ell
Ġp al
un ately
Ġsee ing
Ġshould er
ĠK ate
ang es
Ġthrow s
Ġfis hing
a w
l ass
Ġme at
Ġce iling
Ġpass port
Ġign ored
Ġjelly fish
Ġsle pt
u es
Ġt ax
ĠB un
Ġforgot ten
Ġcelebr ated
Ġrad io
Ġsk irt
Ġdoor s
ng th
Ġtele ph
Ġjourn al
N ext
r s
Ġo ak
Ġmake up
Ġhead s
Ġpresent s
Ġaccept ed
Ġteleph one
B ecause
ar m
Ġst ro
Ġall ig
You r
ag g
Ġfl ame
Ġdon Ã¢
Ġstre ngth
Ġve nd
Ġthrow ing
Ġpin ch
To day
Ġinf ant
ent s
Ġv et
Em ma
Ġf ile
ch ie
Ġloo p
Ġsw amp
Ġam bul
Ġpoin ts
In side
To gether
ĠTr ue
Ġappl aud
Ġgro cer
Ġtax i
E ventually
d robe
v ision
ur ch
Ġal ive
Ġwr iting
Ġshout ing
Ġba king
Ġplan et
Ġwar drobe
Ġrubb er
t e
Ġc ree
ore s
Ġse as
Ġwor th
Ġsun g
Ġcu be
Ġdis cu
Ġste am
Ġwin ter
Ġlemon ade
ache l
Ġmagaz ine
Ġpal ace
Ġcree k
Ġwa gs
Ġf le
Ġit ch
bb ie
Ġshow er
ĠIn stead
Ġdi ary
Ġsquirrel s
Ġatt ach
Ġfold er
Ġhang ing
Ġtele vision
Ġstraw berry
b or
i um
Ġa ut
Ġst able
Ġbo ot
Ġqu ack
Ġgre edy
Ġfo g
ĠP apa
gg y
n am
Ġin se
ss ible
Ġfl apped
Ġpare nt
Ġprep are
ĠA b
Ġhelp er
Ġkn ob
ĠL illy
Ġch alk
Ġfollow s
Ġsail ing
Ġsur round
Ġmyster y
Ġmed al
Ġspray ed
it o
Ġp ra
ic op
Ġv ac
Ġor nam
Ġmo ves
ĠN ext
Ġdisapp ear
Ġser ve
Ġhel icop
Ġarg ue
Ġallig ator
Ġambul ance
Ġhelicop ter
s it
t ress
ĠHe lp
ĠB aby
Ġgr in
Ġbel ow
Ġsign s
Ġmat tress
Ġhar bor
Ġwa ving
un a
ĠJ ess
ro sc
Ġdress ed
Ġfree z
Ġstu d
Ġeag erly
ĠU n
lass es
Ġsung lasses
ĠS u
Ġkn own
up s
Ġminut e
Ġmic rosc
ÅĵIt Ã¢
Ġvend or
a b
l ier
Ġpo pped
Ġfire f
Ġcher ry
Ġmicrosc ope
c ase
Ġw ine
is ing
im i
ig ail
Ġwe igh
Ġre qu
Ġroom s
Ġgr ill
Ġlet ting
Ġfall en
Ġap art
ĠAnn ie
Ġfa uc
Ġpe ar
Ġber ry
Ġref re
Ġcompl ain
Ġlangu age
D id
el come
Ġla wn
est ig
ĠC o
Ġblack board
Ġinv estig
Ġeas ily
Ġwip e
A nn
m m
Ġb reeze
ink y
Ġhead ed
Ġquiet ly
agg ie
Ġfauc et
t ain
Ġs ince
Ġc ared
om ob
id ay
Ġth umb
am b
Ġco b
Ġtall er
Ġent ered
ĠGo d
Ġcro ssed
Ġwhisp er
Ġhapp ens
Ġle ak
qu ito
Ġpo ked
Ġsqu e
Ġchair s
Ġear lier
Ġkiss es
Ġrelax ed
Ġrever se
Ġaut omob
Ġ ig
Ġs uff
Ġf ought
Ġp ur
at ie
Ġst ad
Ġmusic ian
Ġreg ret
Ġcrawl ing
Ġimpro ve
Ġexerc ise
Ġig loo
Ġstad ium
Ġwas te
ĠI Ã¢
Ġal arm
Ġcar ing
Ġch urch
as is
Ġdel ay
Ġdress es
Ġcra sh
Ġap ron
Ġsniff ed
Ġwaff le
Ġvac ation
Ġrequ est
Ġw igg
Ġl umber
ch or
Ġcl iff
Ġfast est
Ġbal an
Ġol ive
Ġsepar ate
Ġinvestig ate
l iday
w eb
y er
Ġs izes
ĠT ony
Ġpo ke
Ġho liday
Ġair pl
Ġinse ct
' .
L isa
Ġo asis
Ġsa us
ĠW ho
Ġv room
Ġsurpr ises
Ġapp ro
Ġspark le
Ġpuzz les
Ġskill s
s quito
Ġc able
uck ily
Ġmo squito
Thank s
Ġscre w
ors es
Ġshr ink
Ġyog urt
Ġa er
er o
Ġy ield
Ġre aches
op l
Ġlot ion
Ġamaz ement
Ġde ar
Ġspot s
fort unately
Ġboun cing
Ġdest ination
Ġscatter ed
Ġcob web
Ġaer opl
i ately
l er
r ight
Ġt ucked
Ġh orses
et y
Ġis n
med iately
Ġinc re
Ġsupp ly
Ġsplas hing
Ġlaw yer
W ait
w as
Ġr ake
st ers
Ġor anges
Ġflo at
Ġmin t
Ġsaf ety
Ġtrust ed
Ġdish was
Ġdishwas her
m end
or al
Ġun if
Ġheart s
Ġmail man
Ġcollect ed
Ġflut ter
Ġyawn ed
Ġvehic le
i ves
Ġp it
om mend
Ġit Ã¢
Ġan chor
ac es
Ġblue berries
Ġflo ated
Ġshr ugged
Ġshoot ing
Ġsquee ze
Ġb other
Ġsa ving
Ġlaug ht
Ġrabbit s
Ġcast les
Ġrec ommend
Ġspend ing
ĠBu zz
Ġmuff in
Ġautomob ile
I s
n ger
Ġt ut
Ġt ug
in ked
ic ing
pl ace
Ġpo ppy
ct ion
Ġde mand
ĠR e
Ġcho ice
Ġexam ine
Ġa chie
om es
Ġli cks
ra ged
Ġsp ade
op s
âĤ¬ .
Ġqu iz
Ġhurt ing
Ġcon f
Ġspark ling
Ġworm s
Ġcand les
Ġexper ience
Ġribb on
ĠJ ames
Ġkne el
Ġstr uc
Ġbook case
Ġfollow ing
Ġsquee zed
Ġunif orm
Ġlaught er
Ġstruc ture
ĠB et
ĠM imi
Ġag ree
Ġeat en
Ġbu ried
Ġra z
Ġrem ove
Sam my
Ġbump ed
Ġpengu in
Ġpra ised
Ġs igh
Ġm ention
Ġpl ates
Ġbu ry
ĠCh arlie
Ġbean s
Ġincl ud
Ġvide o
c akes
Ġs ings
Ġto ng
Ġr ise
Ġplay s
Ġsp ear
Ġsn ap
Ġche ss
Ġinst r
Ġmin er
Ġfu el
Ġfle a
n ies
s ing
Ċ Ġ
Ġs imp
Ġsc ooped
Ġbl inked
Ġhill s
Ġtorn ado
Y uck
Ġwas hing
Ġe qu
Ġsn apped
Ġunderstand ing
ĠO r
Ġign ore
Ġring ing
Ġcap tain
iv al
Ġbatter y
Ġsett led
Ġdestroy ed
Ġraz or
Ġd ried
Ġm all
ion ary
Ġkeep ing
Ġide as
Ġgrow led
Ġblanket s
Ġappreci ate
ĠRu by
Ġto es
Ġp alm
ĠR achel
Ġadm ir
ict ionary
i b
Ġf est
ĠH enry
ĠM iss
Ġman age
Ġwat ches
Ġgl o
Ġfire place
ĠK ing
Ġsit s
Ġent er
Ġwander ed
ĠCl ara
Ġsandcast le
Ġaeropl ane
W ill
i ved
ĠT ed
Ġmy self
omed ay
Ġlab el
Ġble ed
P eter
a pping
Ġd ictionary
Ġp ort
ĠH arry
am ber
Ġbrave ly
Ġcoat s
Ġmelt ed
Ġt ide
Ġy ucky
all ey
Ġj unk
ĠD anny
Ġset ting
Ġjewel ry
Ġstraw berries
Ġyog a
Ġoat s
Ġfreez er
l oe
r ing
Ġto re
ĠIt s
Ġsc ore
Ġro ot
Ġcla ws
ugg age
Ġsnee ze
Ġstom ach
Ġtut or
Ġl uggage
Ġp ages
Ġpr ide
Ġtr ade
Ġclimb s
Ġgif ts
W ith
Ġs omeday
be y
ĠSp ike
Ġflo ating
Ġmoment s
Ġplan es
Ġhit s
Ġvan ished
Ġscrat ch
Ġairpl ane
F l
Ġbe amed
Ġpr op
Ġapp ear
M andy
um ble
ant ly
Ġbelie ved
Ġbee f
Ġsu b
Ġrepe at
Ġstrugg ling
r ise
Ġg a
ĠI s
Ġwe ap
Ġblue berry
Ġburn ing
ĠBe fore
Ġtemp le
a h
l s
v et
Ġd ire
Ġit em
Ġch ores
Ġv alley
Ġjo gging
em ember
Ġdra in
Ġelephant s
Ġwhist ling
ĠSt eve
Ġweek s
Ġtong ue
ĠT ina
is hing
Ġg ear
Ġn ation
Ġsh ot
Ġsp ort
Ġim mediately
Ġcall s
Ġrem ain
iss ion
Ġcudd led
Ġperm ission
Ġfest ival
Ġl ily
le nd
Ġher s
Ġre s
Ġran ch
Ġch amber
Ġpo ison
Ġsun rise
Ġra ise
Ġcr unch
Ġteach ing
Ġbat he
h ouse
i ers
Ġh omes
Ġpull ing
Ġste ak
Ġpatient ly
Ġmarble s
Ġbreat he
Ġprov ide
Ġhe sit
ĠH ave
ut ure
se ek
ĠE ach
ap ed
Ġca lend
Ġpeanut s
ĠAb igail
Ġcalend ar
' ve
o sed
Ġf uture
Ġst itch
Ġj azz
Ġsp it
Ġwarm th
Ġpa used
Ġbuck le
Ġpast el
Ġcollect ing
Ġtick et
ĠFr eddy
all ow
ip ment
Ġthr illed
ĠG ood
Ġdiffere n
Ġhot el
Ġpray ed
Ġappro ached
Ġg ust
Ġshe d
fu me
Ġal right
Ġte ase
Ġwar ning
Ġencou raged
Ġchirp ing
Ġequ ipment
J en
M ark
T weet
Ġd aisy
Ġbe gged
Ġso cks
Ġsh amp
Ġco al
Ġsk ull
Ġsk ipping
Ġper fume
Ġansw ers
Ġmiss ile
Ġpan ic
Ġearth qu
Ġpun ish
Ġinsist ed
Ġshamp oo
Ġc akes
Ġn one
Ġli ck
Ġrest ore
os ity
Ġsold iers
Ġtwist ed
m other
The se
Ġme owed
Ġdog gy
Ġhard ly
xt ure
Ġgu y
Ġresp ons
Ġsol ved
Ġjew els
Ġrece ived
Ġobser ve
Q u
W elcome
Ġl ect
Ġe vent
Ġso re
Ġli c
Ġse w
Ġun ite
Ġrece ive
Ġbri cks
Ġreve aled
Ġlect ure
O uch
f y
Ġp ist
an na
Ġbit es
Ġdeep er
Ġord ered
Ġpist ol
a ct
Ġb ang
Ġd igg
Ġst y
Ġfa sc
Ġco pper
Ġcom fy
Ġpart s
Ġmat ches
Ġpattern s
Ġrecogn ized
Ġrefre shed
Ġe mer
Ġrem ained
Ġwork s
Ġinv ite
ĠCo co
Ġdigg ing
Ġs ip
it ies
Ġr ow
Ġup stairs
Ġj ail
Ġch ir
as es
Ġbl ood
Jo hnny
Ġdr inking
Ġwar n
Ġsupp osed
Ġh ate
ĠJ ul
Ġra cing
Ġmust ache
Ġdisco very
ÅĵThat Ã¢
ĠPe ople
Ġdiscu ss
Ġgrin ned
Ġchir ped
A ll
c c
s ity
ar i
Ġr ush
Ġwhere ver
Ġour s
Ġbooks he
Ġcirc us
Ġur ge
Ġmeas ured
Ġsimp le
Ġfasc in
" ,
ut ty
ĠM ay
Ġgirl s
Ġsp ill
ĠL ater
Ġdec ision
Ġsun light
Ġma ss
Ġplant ed
Ġgrap e
Ġlic ense
b ers
e ed
l vet
r iger
Ġe ff
Ġbe g
ap er
Ġjo gged
Ġrepl ace
Ġcra shed
Ġve lvet
Ġpig s
Ġapolog ize
Ġref riger
Ġbuzz ing
Ġsuff er
Ġearthqu ake
Ġrefriger ator
M mm
Ġb ak
Ġo bey
all en
ĠEvery day
Ġgl owed
ĠP enny
Ġwr ites
Ġact ually
Ġclear ing
o ved
Ġhe at
!" ,
Ġnew sp
Ġra ised
Åĵ No
Ġbring ing
Ġeas ier
Ġsell ing
Ġuniver sity
Ġweap on
Ġdifferen ce
S h
t ory
Ġ V
Ġb ill
Ġhis tory
Ġch allen
ĠJo y
Ġrest ed
Ġmar ching
Ġbath robe
Ġinv it
Ġaw e
Ġsett le
Ġcartoon s
Ġbookshe lf
Ġto e
om ing
Ġg ain
ht ray
Ġas htray
Ġwor se
Ġla id
Ġlet s
Ġturn ing
Ġcontin ue
Ġspark les
Ġland s
Be fore
Ġdecor ations
Ġprep ared
k ins
Ġb es
Ġf ed
ent y
Ġwh ip
Ġsc ur
Ġfl ood
ĠF o
Ġstr ang
Ġrem em
ĠN ot
Ġcomp any
Ġspoon s
Ġfiref ight
ĠRe my
Ġd are
Ġsl ip
Ġwater ed
Ġhat ed
Ġagre ement
Ġbri ck
Ġmen u
Ġremem bers
g ing
Ġtre mb
bb led
Ġproblem s
u de
Ġso ared
ĠM illy
Ġfa sh
Ġpo ssible
iz ard
Ġfam il
Ġchew ed
irp y
Ġadmir ing
Ġcrunch y
Ġm itten
Ġwant ing
Ġbr us
Ġatt ached
Ġexam ined
Ġtomato es
Ġdisag re
J ake
W ould
f ied
w alk
Ġwere n
ind y
Ġmon sters
loo king
Ġsprink les
Ġbes ide
M oral
Ġt ip
ĠL iz
Ġsl ice
Ġfix ing
Ġpract icing
Ġvill ag
ÅĵI Ã¢
Ġneighbor hood
Ġpup il
Ġcur led
Ġstrang ers
h a
at ch
Ġr ust
Ġfl ap
Ġop er
Ġgre y
Ġbra in
Ġcu b
Ġtra pped
Ġtra cks
ĠK atie
Ġmouth s
Re ally
Ġgrocer y
Ġsurround ed
Ġeff ort
Ġnewsp aper
E x
c les
he st
Ġc al
Ġon wards
Ġwe ight
ĠD an
Ġpe el
Ġwo nd
Ġcont ain
Ġcut ting
Ġglo ves
R o
Ġw re
Ġb un
Ġha nger
ĠL una
Ġfl av
Ġfree ze
ĠCh loe
Em ily
n ie
x y
Ġwa ist
Ġd uring
ay s
or a
Ġsp aces
omet hing
Ġper ched
Ġcomp le
Ġside walk
Ġcollect ion
Ġsaf ari
Ġseat s
Ġgun s
Ġpin ched
Ġesc aped
Ġrid es
Ġmod el
Ġsub way
Ġvillag ers
Ġr hy
as p
Ġdown stairs
Ġrain ed
Ġtal ent
ĠN utty
Ġbow ed
Ġbuild ings
Ġpaint s
Ġremind er
Ġwis dom
Ġarg ued
ĠBu bbles
Ġcostum es
Ġsaus age
N ot
ĠS und
ad ed
Ġwait s
Ġdrink s
Ġwhist led
Ġintrod uc
Ġfash ion
u ing
Ġw izard
Ġm ister
ĠB eth
Ġmu dd
Ġgot ten
Ġz ipped
Ġfire men
Ġvisit ing
ĠFl oppy
Ġaccident s
Ġslid ing
Ġtwig s
Ġmem ory
Ġperm it
Fl uffy
L e
d o
d am
n eath
Ġ x
Ġs ix
Ġw id
Ġp itch
ĠH oppy
ad ly
ĠM aggie
ĠF ro
Ġpe ered
ĠC at
th m
Ġz ero
Ġste el
Ġpet ted
Ġpan cakes
Ġpri ce
Ġdinosaur s
Ġminer al
Ġbleed ing
Ġmudd y
H a
Ġb ones
Ġwe ighed
Ġpe ars
Ġany time
Ġeag le
Ġmountain s
Ġmeas uring
Ġbun nies
O k
S ometimes
Y um
id ed
Ġst ing
ist en
Ġpe arl
Åĵ Thank
Ġneighb ors
Ġfold ed
ĠCh r
Ġhur ric
re en
Ġl amb
Ġn avy
Ġare a
Ġbr id
Ġbr ushed
Ġche f
Ġvo ices
Ġsho pping
av i
ĠO l
Ġscrat ched
Ġgrand mother
Ġencou rage
Ġpad d
Ġprun e
Ġbr ings
Ġme ow
Ġdecid es
Ġbed s
Ġswim s
Ġpet s
Ġbott les
ĠSome one
Ġpillow s
Ġguess ed
Ġped al
Ġmass age
Ġwond ers
! '
Ġ Once
Ġl ung
Ġr ipped
ri age
Ġle ather
Ġsnow ball
Ġsecret s
Ġcomfort ed
Ġinvit ation
Ġhurric ane
c age
m are
s on
id es
am ie
Ġhapp iest
ĠM at
ter day
ic a
Ġbird cage
Ġran g
Ġover joy
ĠP oppy
ĠLet Ã¢
Ġcatch ing
ĠCh irpy
ĠAnn e
Ġcudd le
Ġornam ent
ĠSu zy
Ġfascin ated
Ġdisagre ed
Ġoverjoy ed
c ious
Ġsc oop
ĠL ucky
Ġstr uck
Ġgl itter
Ġunder ground
Ġsto le
Ġmark ers
Ġzoom ing
Ġwaff les
Re ady
Ġinstr uct
Ġsty le
Ġoper ation
xy gen
Ġrhy thm
O r
ĠThe se
ig z
Ġpret ti
Ġsn ail
Ġkind ly
Ġpu pp
Ġbra nd
Ġnight mare
Ġact iv
ĠHow ever
Ġsnee zed
Ġrecogn ize
Ġbrid ges
Ġpretti est
F irst
Ġre le
Ġex act
Ġevery day
Ġbl ouse
Ġv owed
Ġte asp
Ġra il
Ġcon es
Ġtast es
Ġdri ft
Ġsat is
Ġwood en
Ġdoctor s
la ire
Ġhur ried
Ġsucceed ed
Ġdisturb ed
Ġtrave ll
ĠBet sy
Ġteasp oon
S usie
m ble
o ed
Ġt ugged
Ġb are
ĠM e
Ġcont ro
Ġpil es
Ġstud ied
Ġbill board
ĠSund ay
g ers
Ġo xygen
et ch
Ġstr uggled
Ġim age
Ġby e
ast er
Åĵ Look
Ġkeep s
Ġcre pt
Ġtun e
Ġacorn s
Ġmuff ins
Ġlip s
ĠSh aring
Ġitem s
r in
u ke
Ġl ines
Ġc aut
ĠS omething
Ġtre mble
ant a
Ġunder neath
Åĵ Don
Ġlady b
Ġperf or
Ġplan ned
Ġser ved
Ġbloom ed
Ġinclud ed
Ġspaces hip
H appy
l en
u zz
im y
Ġlo ving
Ġoff icer
av id
Ġsu itc
Ġpar ked
Ġscream s
Ġtick ets
Ġsoar ing
Ġmention ed
Ġrespons ible
Ġbeg in
d ing
Ġwa gging
Ġbe at
Ġbe ard
ĠIt Ã¢
Ġsor ting
Åĵ We
Ġkeep er
Ġcre ation
ff ic
Ġtra ffic
Ġland sc
Ġneighbour hood
Ġcomple ted
L uckily
Ġto night
ĠT iny
Ġe ight
Ġeat s
Ġhon k
Ġsight s
Ġshiver ed
Ġpotato es
Ġol ives
D ave
R ex
R emember
Ġd ied
Ġg ained
Ġbe nd
Ġcuri osity
Ġemer gen
Ġscur ried
Ġintroduc ed
Ġinstruct ions
Ġv ent
Ġpre cious
iz ing
Ġpaint ings
And y
Ġdecor ated
Ġuniver se
. '
G eorge
Ġn icer
Ġag o
Ġwhat ever
Ġreal ize
Ġste ep
ĠJen na
Ġacc om
Ġmach ines
Ġmov ies
Ġcompetit ion
Ġshadow s
Ġprun es
Ġexact ly
Ġs i
Ġan n
Ġrock ed
Ġdraw s
Ġgu est
Ġprotect ed
Ġsol ut
uct antly
igz ag
Ġlandsc ape
u x
z en
Ġsad ness
Ġsl apped
Ġown ed
ĠR a
Ġbeh a
Ġprin ter
Ġfro sting
Ġben eath
Ġpow ers
Ġintrod uce
low ly
Ġprop erly
Ġwre ck
ux u
M ar
b ies
Ġb ank
ĠS unny
Ġin ch
ber t
ĠJo sh
Ġshould ers
Ġyell ing
Ġcont est
Ġpour ing
Ġlem ons
Ġlibr arian
Ġsteal ing
âĤ¬âĢ Ŀ
Ġrubb ing
Ġpengu ins
Ġrele ased
Y e
a les
Ġl uxu
ĠT w
Ġwe b
Ġkn elt
ĠR ob
Ġru in
Ġba bies
Ġsister s
igg y
Ġmix ing
Ġkey s
ĠO llie
Ġgather ing
Ġtwirl ing
Ġsil ence
Ġur ged
f it
h ins
r r
as hed
Ġstrugg le
Ġpur red
Ġcontro l
om as
Ġtheir s
Ġsor ted
Ġforg i
Jo ey
Ġfro zen
Ġrel uctantly
Ġunl ocked
Ġcrack ers
Ġfirework s
Ġbare ly
Ġaccom pl
m el
Ġs ides
Ġm ice
is hes
Ġso ak
ĠB ir
Ġsh ock
Ġout do
Ġex it
Ġbu dge
ĠC ar
Ġdra gged
Ġcr umb
Ġmus cles
Ġspid ers
Ġpun ished
Ġstrip es
Ġchallen ge
T eddy
i ar
Ġd am
Ġloo se
Ġout fit
ĠA n
Åĵ Can
Ġpast els
Ġboun cy
Ġdolp hins
ĠFr ank
Ġrepe ated
Ġachie ve
z ing
Ġ 1
ĠH op
pp ers
Ġran ger
ag ull
ĠF irst
Ġop in
th ank
th ough
Ġwait er
Ġbre aking
Ġprin ted
Ġwin ning
Ġpocket s
Ġexp ect
Ġexp ected
Ġroad s
Ġroar ing
Ġfig ured
ĠZ oe
Ġemergen cy
r ance
Ġth ro
Ġli ed
Ġch ases
Ġbec oming
bb ing
Ġbucket s
Ġmiss ion
ĠSt op
Ġpolice man
ues day
Ġbrus hes
Ġthro at
i en
s hing
ed ding
ĠT uesday
ĠB ig
Ġse agull
Ġcl ick
ĠD id
Ġpe aches
Ġsl imy
Ġlet Ã¢
Ġwonder ing
Ġplan ets
Ġent ire
Ġstir ring
Ġscream ing
Ġclap s
Ġdiscover ing
Ġcamp ing
Ġcrow d
ĠUn cle
K itty
p ected
Ġw est
Ġto ur
Ġp ies
ĠL ike
Ġsn ugg
Ġsit u
Ġstar ing
Ġstret ching
Ġsne aked
Ġapplaud ed
Ġincre ase
Ġguy s
ÅĵDon Ã¢
B ella
U n
ĠJ an
Ġhome work
Ġhow ever
ĠC indy
Ġun ex
Ġsees aw
Ġact ed
Ġspray ing
Ġcountry side
Ġbalan cing
Ġsi ren
Ġunex pected
d ie
z ie
Ġb oo
Ġf art
it ely
Ġd a
le e
Ġwor ries
Ġgood night
Ġtouch ing
Ġhig hest
Ġgigg ling
Good bye
ĠAl ways
Ġconf ident
Ġtremb ling
Ġcaut ious
Ġsuitc ase
Ġoutdo ors
J ames
M r
P ete
b ric
j am
er n
Ġhe el
Ġm ittens
ĠS anta
Ġall ow
Ġfa bric
Ġte asing
Ġbro om
Ġour selves
ul ts
Ġmar riage
Ġpass ing
Ġscr u
Ġlead er
ĠUn fortunately
Ġdemand ed
Ġsigh s
Ġladyb ug
jam as
he ll
Ġc ape
ĠT illy
Ġpl enty
Ġsc ra
Ġmat ching
Ġrainbow s
Ġent rance
Ġsupp lies
Ġshiver ing
Ġnail s
Ġdire ction
anna h
Ġluxu ry
E lla
H enry
M ike
M ittens
ver s
Ġr ipe
Ġst are
Ġre lease
ind a
Ġfl at
Ġv ict
ĠD avid
Ġgr ant
ĠG r
Ġsweet s
Ġba ked
ul u
Ġreach ing
Ġwin ner
Ġcomplet ely
ĠJul ie
Ġsatis fied
Ġsolut ion
d ies
Ġm ater
ess ie
ak y
Ġgre et
Ġte xture
Ġrest ored
Ġcut s
.. .
Ġtwink ling
Ġmater i
A h
L ola
n es
Ġt i
Ġw edding
Ġhe av
ĠB y
ĠL izzy
as on
Ġpo king
ĠP ip
ac ed
Ġsweet ies
Ġpro ject
Ġcur ly
Ġsurf ace
Ġcurtain s
Ġseas on
ĠJess ie
Ġbalan ced
Ġres ult
o dy
v in
Ġ Yes
Ġb unch
Ġf ara
Ġg e
Ġe ast
ĠJ on
are n
Ġsn akes
Åĵ Hello
Ġwr itten
Ġpa jamas
Ġsing er
ĠDo lly
Ġroll s
Ġpast ries
Ġintere st
Ġresc ued
Ġload ed
cu se
low ers
Ġquack ed
Ġfara way
u ly
Ġw ound
ed nes
ĠS lowly
ĠM ad
ĠJ e
Ġcom m
Ġfore head
Ġun ited
ac ob
Ġz igzag
Ġpol ishing
Ġmark er
ĠO ut
Ġpray er
Ġhorn s
Ġmelt ing
Ġrecord ed
Ġstudy ing
Ġtask s
Ġpad dle
Ġincl ude
Ġbur row
Ġdisag ree
Ġkneel ed
Le o
ednes day
P aul
Ġ Qu
Ġbo om
ĠW ednesday
Ġfl ames
Ġstr ings
Åĵ This
Ġcreat ing
Ġmat ched
Ġdes er
Ġtrip s
Ġcrab s
Ġmagn ets
Ġshel ves
Ex cuse
e ep
ĠS ure
Ġst air
ic orn
Ġcat ches
Ġsl ap
Ġbra very
Ġun icorn
Ġtow els
Ġkick ing
Ġcheer ing
oph ia
Ġvan ish
Ġdust y
Ġphot os
B un
p e
Ë ľ
Ġw ink
Ġd ent
en a
ig i
un e
Ġstart led
âĤ¬ Ëľ
Ġch at
Ġbl ink
Ġpe bbles
led ge
Ġbed time
Ġrepl aced
Ġsing le
Ġdragon s
Ġmot ion
How ever
Ġpencil s
Ġbump s
Ġstamp s
Ġweep ing
Ġitch y
Ġornam ents
Ġga zed
Ġvent ured
F red
g o
he e
Ġs way
Ġf etch
ir m
ĠB ird
ĠB ye
ĠA dam
Ġhug ging
Ġknow ledge
Ġtr uly
Ġwork er
Ġcra cked
Ġbuy ing
Ġheal ed
Ġmiss es
Ġarg uing
Ann ie
Ġregret ted
A lex
c ers
re at
ay la
ĠF or
ĠC laire
Ġrem oved
Åĵ Mommy
Ġwr ist
Ġfood s
Ġtra ctor
Ġrain co
Ġstick ing
Ġus ually
Ġprin ts
Ġdri ves
Ġwasn Ã¢
Ġpol ished
ang led
Ġpat ience
Ġrelie f
Ġrocket s
Ġtick le
Ġcover s
Ġsandcast les
Ġactiv ities
Ġfart her
Ġrainco at
F r
M rs
b oo
c ope
il es
Ġr umble
Ġst ern
Ġsh ined
Ġcan s
ĠJ amie
Ġro ots
ĠP ipp
Ġexplore rs
Ġsto len
Ġus ual
ĠN ick
Ġopen ing
After wards
Ġgrow ling
ho g
Ġchew ing
Ġflag s
Ġpee king
Gra ndpa
Ġstri ke
Ġobser ved
ĠChr ist
ĠRa bbit
mel ia
l ings
y ou
in t
Ġc ent
Ġp out
ĠS adly
or ds
ĠL arry
ust ed
Åĵ Oh
Ġsmile y
Ġus es
Ġyell s
Ġpart ic
Ġthre at
Ġcolour ed
Ġglass es
Ġtrave led
Ye ah
M illie
S andy
Ġb umpy
Ġr isk
Ġyou th
Ġsp ike
op es
Ġfa ult
Ġch ips
Ġfo c
Ġsn at
Ġrock ing
Ġru ler
Ġgrow l
Ġcelebr ation
Ġherb s
ab el
Ġfirefight ers
ĠMat t
m as
p er
ri ous
ind r
Ġch uck
as m
ĠC arl
Ġra indr
Åĵ Why
Ġstay ing
oy s
Ġown ers
Ġteac hes
Ġdes ert
Ġval ued
Ġtick led
Ġsil ent
Ġfre ed
Ġseem s
Ġsquare s
Ġrub s
Ġhedge hog
Ġimpro ved
ĠRo ver
Ġseas hell
Ġsque aled
Ġcrumb s
Ġvict ory
j o
Ġd ipped
on i
Ġso bbed
ĠC he
ĠP l
ĠP inky
Ġlisten s
ĠTh omas
Ġru le
Ġyes terday
Ġcream y
Ġpat ted
Ġfu zzy
Ġtemp er
Ġpartic ular
S ophie
Ġto dd
Ġf irm
Ġd en
at y
Ġbe ad
Ġex ha
ĠW ater
Ġla p
ĠL uckily
ĠL inda
ĠL ulu
bb ly
Ġpe ppers
Ġcolor ing
ĠG reen
Ġca used
ĠLe ave
Ġadd ing
Ġwander ing
Ġwigg led
Ġfamil ies
ĠChrist mas
B obby
C l
P olly
o h
he llo
Ġc ash
id ing
en ces
ĠĊ Ġ
op sy
ĠG igi
Ġwork ers
ĠEm my
Ġwin ked
Ġsaf er
Ġreve al
Ġtwink le
Ġga ze
Ġopin ion
Ġsitu ation
Ġraindr ops
p ite
Ġa st
Ġc ous
Ġd ared
Ġp ause
is ies
es ome
Ġe ch
ĠB oth
Ġne ct
ĠM any
Ġcan Ã¢
Ġfa ced
Ġch oo
Ġneed les
itc hes
Ġrest ing
Ġarri ve
Ġagre es
Ġpack ing
Ġact ions
ĠO wl
Bob o
Gra ce
Ġunpack ed
ĠJess ica
Ġda isies
Ġexha usted
Ġnect ar
F ine
U h
b and
e ke
f l
Ġt im
Ġa ff
Ġl ined
Ġc ough
Ġwas ted
le y
Ġyou Ã¢
Ġgo als
ur ry
Ġman e
Ġsw ooped
ĠF riend
Ġdel i
ĠN an
ol ine
Ġbowl s
Ġinv iting
Ġple asure
Ġnet work
Ġaw esome
Ġjack ets
Ġdeliver ed
Ġscru bbed
Ġtemper ature
D ays
R ose
n joy
Ġc ause
ar ter
im mer
Ġli qu
Ġsm arter
Ġro bb
ong o
ĠSp ark
Ġbeh avi
Ġread s
Ġdark ness
Ġfair ies
Ġmar ked
Ġwar ri
Ġspe aking
Ġbloom ing
Ġcop y
Ġhall way
Ġgrocer ies
Ġliqu id
u dy
Ġw ow
ed s
Ġh i
Ġp iggy
ĠS us
ĠH appy
Ġso aked
Ġwe ars
Ġsc ales
Ġfe ver
ĠL uke
Ġkne es
Ġimport ance
ugg les
Ġprincess es
Ġrep ly
Ġblow s
ĠSn uggles
Ġwire s
Ġachie ved
ĠFo llow
Ġcal med
Ġdrift ed
Ġcautious ly
Ġsnat ched
M aggie
Ġ ĠĊ
Ġt y
ir ts
Ġst em
Ġse ven
ĠJ ones
Ġsome body
ĠE ls
Ġyour selves
Ġwouldn Ã¢
Ġcow b
izz ie
Ġlead ing
Ġribb ons
Ġrecommend ed
Ġinterest ed
Ġchuck led
Ġbead s
Ġdeli very
o ssible
Ġs ense
Ġb ars
Ġg lee
Ġsp ong
ĠJ ay
Ġsw irl
Ġtw in
em ma
Ġimp ossible
bo at
Ġpot s
ĠO w
Ġmask s
ÅĵWhat Ã¢
Ġflutter ed
Ġbak ery
Ġsnowball s
Ġdent ist
m ies
Ġm es
ĠT ess
ig ning
Ġr ip
Ġk ites
Ġlo sing
Ġrem ote
Ġbad ge
Ġdream t
Ġnap s
Ġnap kins
Ġorgan izing
Ġwip es
ĠZ oom
Ġknight s
Ġhelm ets
Ġtem pt
Ġstro ll
Ġstro ked
Ġpadd led
Ġforgi ven
Ġmes mer
H arry
i k
Ġl imes
ĠA bbie
ĠE lly
us band
Ġlearn s
Ġjo king
Ġclos es
Ġfro ze
ĠJohn son
Ġpoin ty
Ġsec ure
ĠBe ing
Ġaw ake
Ġped als
Ġbak er
Ġann oy
Un fortunately
Ġcash ier
m allow
Ġo pp
ar ling
Ġbe lly
Ġcolor ed
Ġhid er
Ġprotect ing
Ġpass en
Ġsplas hes
Ġdeterm ination
Ġseek er
Ġfill ing
Ġrad ishes
arsh mallow
Ġstom ped
ĠSu zie
Tweet y
A b
Ġ Y
ĠS orry
Ġin sp
ad es
ĠA melia
Ġno ses
ĠMom o
ĠP ut
Ġde al
Ġstore keeper
ĠDo ggy
Ġtall est
Ġmus cle
Ġtail s
Ġsign ed
Ġscar ing
Ġscar ves
Ġcand ies
Ġlean ing
Ġgira ff
Ġobject s
Ġsneak y
Ġaccompl ish
Ġti pt
Ġwarri or
Ġspong e
v a
Ġt ig
Ġa ud
Ġs ib
Ġh usband
ou ch
il ed
Ġr ising
end y
al ph
ĠJ acob
?" ,
Ġback ed
Ġle ap
Ġme als
ĠW atch
Ġevery body
ish y
Ġcre ations
Ġun f
ĠG et
Ġafter wards
Ġheal th
br ush
Ġmil es
Ġzoo keeper
Ġrecord ing
Ġarrow s
Ġart ist
Ġcheek s
Ch arlie
Ġsnugg le
Ġgiraff es
Ġtig ers
F or
t uce
v est
an s
Ġwe eke
ĠB ongo
itt ed
ĠM ira
Ġare n
ick y
Ġfl apping
Ġch ip
Ġlet tuce
Ġdan cers
Ġcon n
Ġcon cer
ĠP am
th s
Ġar r
Ġste er
Ġpart ies
Ġhid es
Ġmark s
Ġdi ving
Ġsal ty
Ġgrace fully
Ġavo id
Ġhesit ated
ĠGood bye
Ġtravell ed
ĠJe ff
Ġweeke nd
F in
Ġc ust
Ġd ots
Ġm i
il o
an n
Ġth ird
Ġy um
Ġfe ast
ĠL ou
au ra
Ġsl ices
Ġsn uck
ĠC ra
Ġra cc
ĠP rin
Ġhands ome
Ġde f
Ġtri cked
Ġsail boat
ĠFl opsy
Ġpot ion
ment s
Ġbur st
Ġdiscu ssed
Ġhesit ant
ĠNot hing
Ġrust y
Ġtalent ed
Ġtodd ler
Ġaff ord
Ġcust om
Ġracc oon
a a
n ers
u zzy
Ġt angled
Ġhis sed
ĠM a
ick ed
ĠF ar
Ġsl am
Ġdra wn
Ġcorn ers
Ġspoon ful
Ġpan s
Ġrequest ed
ĠBet ty
Ġdire ct
Ġlung s
Ġsib lings
A n
K atie
z es
Ġc ott
Ġd ie
id s
ll en
Ġne ither
Ġback wards
ep t
Ġfl ight
ĠE arth
Ġsw ept
Ġhand ful
ĠR obby
Ġprin ting
Ġpretend s
Ġdark er
Ġsnow men
Ġembarra ss
Ġfold ing
Ġpump kins
Ġlog s
Ġwrap s
iv ity
Ġsaus ages
Ġflutter ing
Mar ia
Ġtipt oed
Ġmi xture
B oo
d ed
e al
p it
Ġl ower
il ity
Ġr us
ick ey
Ġch op
ĠE njoy
Ġgra ndp
Ġgra bbing
ĠJack y
Ġad ult
Th ose
ĠP o
Ġdraw ers
ĠK ayla
Ġgas p
ĠZ oomy
Me ow
ĠBu zzy
Ġsuperhero es
Ġinsect s
Ġwid ened
ĠPipp in
Ġcous in
Ġaud ience
G reat
R u
Ġw ins
Ġo cc
Ġbe am
ĠB inky
ĠA unt
Ġfe ars
Ġwor n
Ġco nd
Ġwill ing
ak er
Ġwind y
Ġgrass y
Ġriver s
umb ling
Ġstar fish
Ġclown s
Ġref le
Ġbase ment
Ġexper ien
Ġfamil iar
Ġflav or
Ġchef s
Ġperfor man
Ġbegin ning
E w
a bby
c ited
n o
Ġg ross
ĠS ophia
se qu
Ġre fu
ĠM on
ĠJ azz
ie ce
Ġdad s
Ġbu lly
Ġcon sequ
Ġun s
Ġsnow fl
Ġcreat ivity
Ġforget ting
Ġwra pping
Ġcelebr ating
To by
Ġpay ing
Ġknock s
Ġcompl ained
ĠRo bert
Ġsprink led
Ġfirefight er
Ro ar
ĠOl ive
Ġheav ier
Ġpout ed
ĠPrin cess
Ġgrandp are
R un
W hee
Ġm erry
ĠH oot
Ġr opes
ad os
Ġwe pt
Ġre ass
ĠM el
Ġbo dies
ĠJ une
us ing
ĠJo jo
Ġstay s
ob ody
ret ty
Ġkick s
Ġshr inking
Ġrec ipe
Ġsour ce
Ġind eed
Ġfork s
Ġscrat ches
Ġavoc ados
Ġsepar ated
Ġprov ided
Ġsurround ings
Sh h
ĠFo x
Ġpupp ies
B ad
D anny
E llie
K ate
t le
Ġwa dd
ĠH annah
Ġr ings
Ġsp ikes
ĠL izzie
au la
ĠEvery body
ile y
Ġdoll house
Ġcre w
ĠG ary
Ġbel oved
ĠK eep
Ġatt ack
ĠWith out
ĠBlue y
Ġtrick y
Ġsecond s
Ġhuman s
Ġpress es
Ġinclud ing
Ġgrant ed
ĠFriend s
Ġconsequ ences
? '
B l
M illy
N emo
c ake
f all
w k
Ġh our
Ġd arling
Ġm aster
Ġn ine
Ġha wk
Ġst ool
Ġpl ucked
Ġgo bbled
ĠA bby
Ġgl ued
Ġdress er
ĠN ina
ath an
Ġmagic ian
Ġtalk s
Ġplan s
Ġneighb ours
Ġhor iz
Ġwis hing
Ġed ges
Ġtunn els
Ġgem s
Ġdeliver ing
Ġneat ly
Ġinstr um
Ġbeha ved
ĠGr anny
Ġdeser ve
Ġtim er
F o
W h
u rious
Ġto uc
ĠS pl
ĠB essie
Ġte ased
Ġam ong
Ġru ining
ĠJane y
Ġscre ws
Ġsail ors
Ġplan ning
ĠSt ay
Ġcross ing
Ġlollipop s
Ġsymbol s
Ġbuzz ed
Ġwarn ings
Ġswims uit
Ġmateri als
ĠSus an
Ġaccomplish ment
Ġrus hing
Ġperforman ce
Ġhoriz on
N ina
S ome
T w
r ig
t he
Ġh itting
Ġm arshmallow
Ġp ens
Ġon ward
ch oo
Ġsp ices
Ġhelp ers
Ġfa ct
Ġag e
ĠL i
ĠL isten
Ġfl as
Åĵ Do
Ġremember ing
Ġam ount
Ġblock ing
ĠO ur
Ġpath s
Ġdrum s
ĠZ ara
Ġdesign s
Ġmushroom s
ron aut
Ġcobweb s
Ġast ronaut
Ġech oed
Ġdirect ions
Ġtouc hes
D an
E ven
Ġm er
at ur
Ġsa n
Ġst ung
Ġon ions
Ġplay ers
st ep
Ġle ast
Ġbr u
Ġte les
Ġra ces
Ġstrong est
ĠR emember
Ġcho ices
Ġbasket s
Ġforget s
Ġpeace fully
Ġmatter s
Ġtest ed
Ġresist ed
ĠRo bbie
ÅĵYou Ã¢
ab ly
Ġwigg le
Ġdam age
Ġscra ped
Ru by
Ġmarshmallow s
Ġteles cope
P e
T ime
T ina
f ire
t ier
Ġ Q
Ġc or
ĠS qu
ĠS que
ri p
Ġyou nger
nt il
ĠW ell
ĠE l
Ġv ines
Ġpret tier
Åĵ Wow
Åĵ My
Ġcon vers
Ġgrow ls
Ġbath s
Ġimag ining
Ġhon ked
Ġgen ie
Ġpoem s
Ġminer als
Ġrust ling
ĠTw o
Ġgreet ed
Ġpassen gers
Ġocc as
Ġsan k
D uring
K im
d ges
i el
n ow
Ġt uck
it ion
Ġm ast
Ġm unch
ay ing
Ġst itches
Ġne are
ĠJ udy
Ġsc ient
Ġad ults
Ġac he
Ġnear ly
Ġcurious ly
Ġresp ond
Ġimag es
ĠSt itch
Ġfeed ing
Ġvan illa
Ġpray ing
Ġborrow ed
arth a
Ġcush ions
mand a
Ġcomplain ing
Ġincre ased
ĠFro g
Ġbeha ving
Ġcomm un
immer ing
Ġbehavi or
Ġmesmer ized
ĠFar mer
Ġuns ure
Ġscient ist
B y
D ucky
M ay
M ad
a ired
k y
l ves
Ġc oral
ĠT ara
Ġsa le
Ġplay time
Ġnot es
all owed
ĠW endy
ĠL ena
Ġsw allowed
ue en
Ġtr amp
Ġtw ice
Ġwo bbly
Ġdan ces
Ġz ipping
ĠAs h
Ġjoy ful
Ġstand s
Ġdriver s
Ġhope ful
Ġrep aired
Ġsunf lowers
Ġenthus i
Ġreward ed
Ġcent er
rig ued
Ġtramp oline
H ave
O ur
O ops
Ġc oup
Ġp ours
Ġo h
Ġn ibb
ĠS c
Ġno on
Ġsc en
Ġco c
Ġfl own
ĠE x
Ġsw ords
Ġtree house
Ġtr ot
Ġbra ver
Ġwo bble
Ġwo bbled
Åĵ Hi
Åĵ Well
Ġdro pping
Ġhear ing
atter ed
Ġheal ing
Ġact ion
Ġspread ing
ĠMike y
ĠFro ggy
ĠBir thday
Ġge ese
Ġarr anged
Ġenthusi asm
Ġcoup le
d ri
i ppy
w eed
y es
in itely
it ched
it ude
Ġd et
at ul
Ġn ood
Ġe ase
ĠM ouse
ĠM ilo
ĠM ickey
ide y
Ġj ugg
Ġsp ins
Ġbl ast
ĠF uzzy
Ġpe cked
Ġsl ips
ion a
Ġfin al
Ġfin ishing
ĠP r
ac y
Ġwarm er
Ġsand pit
Ġlight er
Ġslow er
Ġel f
ang ing
Ġpro ve
Ġbee h
ĠThank s
Ġwip ing
Ġhero es
Ġencou rag
Ġtriang les
Ġrefre shing
Ġtravell ing
Ġguest s
Ġ1 0
ĠQu ack
ĠQ ueen
- -
L ike
b ell
b ird
Ċ Ċ
Ġ 2
Ġa imed
Ġsa dd
ĠS mo
im on
Ġth orn
ĠH olly
ver al
Ġpl ain
ad ie
Ġsh irts
Ġre ason
ĠM abel
Ġse veral
ĠL aura
Ġfl ips
Ġpo ss
Ġexpl o
Ġoff ic
Åĵ Mom
Åĵ Come
Åĵ Now
Ġthr own
Ġde fe
ĠN obody
Ġste ady
Ġpen nies
Ġsea weed
Ġlift ing
Ġact ing
ert ain
ĠAl though
Ġant ic
Ġexam ining
Ġsell er
Ġaw o
ĠU nder
Ġcamp fire
Ġoy sters
Ġbreat hed
Ġvide os
Ġfiref ly
Ġyield ed
Ġfoc used
ĠEls a
Ġdef initely
Fo llow
B r
L illy
P at
T r
Y ummy
e ars
y ond
Ġs y
Ġf aded
ĠS un
an es
Ġbe yond
Ġst ain
ri e
st ick
Ġsc amp
Ġch os
Ġpe ck
Ġhead ing
Ġsqu ishy
ĠTh ose
Ġbow s
Ġpol itely
Ġvisit or
Ġcup cakes
Ġcho pped
Ġca using
Ġexp ress
Ġlift s
St eve
illi am
Ġthu d
ye ars
Ġcudd ly
Ġprop er
Ġsport s
Ġfreed om
Ġsnowfl akes
Ġnood les
Ġbeeh ive
Ġchos en
a ven
b ro
c her
r atul
w hile
Ġd aring
ing er
Ġso fter
st r
un ched
ent ly
Ġsh own
Ġro ars
ong ratul
Ġwho se
ĠF ire
Ġtw enty
ĠSp idey
ĠR ain
Ġwarm ly
Ġthrough out
Ġwon Ã¢
Ġdi ved
ĠAl ong
Ġnervous ly
Ġtwist ing
Ġdiamond s
Ġtoast er
Ġsniff s
Ġsnee zing
Ġsurf board
Ġstack ed
Ġinsist ing
ĠAb i
Ġpupil s
Ġflav ors
Ġrobb er
Ġcowb oy
Ġslam med
C ar
M iss
S adly
W oof
c l
m ered
Ġa im
id o
on ies
Ġin j
ut ter
ĠB o
ĠB oun
ĠJ ax
Ġch arge
Ġint rigued
Ġover come
Ġpu ff
Ġexplore r
Ġsto pping
Ġwr ink
ĠG emma
Ġtable s
ĠK aren
ott en
Ġbelong ings
Ġmail ed
Ġdrive way
Ġign oring
Ġdecor ating
Ġwhisp ers
Ġtwist y
Ġstream ers
Ġdesign ed
Ġgrand son
Ġstat ues
Ġperform ing
Ġlend ing
Ġtwink led
Ġloop s
Ġwhisper ing
Ġsuff ered
Ġlick ing
Ġsew ed
ĠSpark y
ik i
Ġgrandpare nts
Bl ue
Ġawo ke
J erry
S u
c ter
u pt
y an
Ġf ant
Ġd ot
Ġm ate
Ġp onies
Ġr otten
Ġplay room
Ġsh oo
Ġro ses
Ġco ach
Ġco sy
Ġpr ob
Ġgood ies
Ġsl ed
Ġbeauti fully
Ġdoll ars
Ġun w
Ġforest s
ĠR avi
Ġbel ts
uff in
Ġunderstand s
me al
Ġjoin ing
Ġfit s
Ġcalm ly
Ġlead s
ĠZ ero
Ġswan s
Ġoat meal
Ġsurrender ed
Ġquarrel ing
Ġnovel s
Ġres ults
Ġpunish ment
Ġtremb led
Ġwid er
Ġrefle ction
ĠSqu irrel
ĠSque aky
Ġantic ip
Ġscamp ered
Ġfant astic
Ġprob ably
A dam
S urpr
a el
e el
r up
s m
s ers
w he
Ġt iss
Ġt ying
Ġg ap
Ġn apping
an while
im ent
on se
ri er
ĠB ee
Ġman ag
ĠW ally
Ġch ara
ĠD r
Ġsl ither
Ġwater fall
Ġfin s
Ġcold er
ich ael
Ġfox es
Ġshop s
oun ced
Ġresp onse
Ġpicnic s
Ġappreci ated
Ġconf l
ĠJul ia
ĠChr is
Ġperfor med
rr r
ĠBir dy
Fr ank
Ġrisk s
Ġforgiven ess
Ġconn ected
Ġmer ma
bro ken
Ġchara cter
B aby
J ul
L isten
V ery
c row
m ates
Ġa is
it s
Ġc ertain
il ted
Ġg est
ĠS k
ĠS w
ck y
ch ild
ĠM artha
Ġas ide
Ġsc ored
ĠW in
ĠL ove
Ġpo ster
Ġpo sit
Ġtw eet
Ġhand ing
Ġgarden er
Ġcon vin
Ġrain y
ĠR alph
Ġel bow
Ġcloud y
ĠSt an
Ġpost man
Ġsniff ing
ĠU ntil
Ġgrand child
Ġappreci ation
Ġscrew dri
Tweet ie
Ġspill s
Ġseashell s
Ġannoy ed
Ab igail
ĠCra bby
Ġwadd led
Ġencourag ing
Ġsy rup
Ġanticip ation
Ġscrewdri ver
B ack
T illy
a e
b ut
f ound
o ss
Ġt ar
Ġt ipped
Ġwa g
re y
Ġl ent
Ġn i
an a
on na
es pite
oo king
Ġr amp
Ġwe eds
Ġsh ady
Ġk ings
Ġre un
ĠM o
Ġj ars
ĠA ny
Ġex cept
ight ing
Ġno dd
Ġch anging
Ġwater ing
Ġsmall est
Ġsn ort
Ġbra vest
Ġche ers
ĠP andy
Ġsweet est
Ġcra ft
Ġworry ing
Ġsail s
Ġbelie ving
Ġheart broken
Ġlay ing
Ġpop s
Ġbell s
Ġneckl aces
Ġsuggest ion
Ġprep aring
Ġped aled
Ġrever sed
Ġstud ents
Ġincre asing
Ġrespons ib
Qu ick
Ġsuffer ing
ĠSpl ash
Ġconvers ation
Ġoffic ers
B et
B eth
K aren
M ine
f ather
m unk
o llen
Ġ X
Ġt ies
Ġt umbled
Ġg onna
am bled
Ġst umble
st orm
Ġre app
Ġsw ollen
Åĵ Of
Ġcon qu
Ġblock ed
Ġbit ing
Ġnest s
Ġrespect ed
Ġang els
Ġpepper oni
Ġbatter ies
Ġperm itted
Ġzebra s
Ġmeow ing
Ġpupp et
Ġge ars
Ġconcer t
Ġreass ured
Ġtrot ted
B ill
B unny
E ach
J amie
R ob
c ie
w ise
Ġto ss
Ġhe ight
ĠT una
ĠS al
or der
Ġe v
Ġe arn
Ġu nd
Ġr ather
Ġst all
Ġthat Ã¢
ĠM art
Ġsm ashed
Ġan ger
Ġsp ook
Ġme mb
Ġnew found
Ġbl ond
Ġthought s
Ġta pped
Ġsk unk
Ġqu ilt
ect ion
When ever
Ġwr igg
Ġtow ard
ath y
Ġfire s
Ġdr own
Ġcra shing
Ġprom ises
Ġcount s
ĠTo dd
Ġve gg
Ġpaint brush
Ġplant ing
Ġstreet s
Ġpay s
Ġscr ambled
ĠZ ip
Ġsoap y
Ġsuit s
ĠDave y
Ġdiscover ies
Ġspeed ing
uct or
Ġpassport s
Ann e
amb oo
Ġdelay ed
Ġwigg ly
Ġuniform s
Ġeffort s
Ġdam aged
Ġfirm ly
ĠLou ise
Ġmerma id
Ġspook y
Ġmemb ers
? !"
O ut
R achel
m s
o ey
p rin
s ie
v as
Ġw oof
Ġh oo
Ġp ound
Ġn uzz
an ces
or ter
ĠH ope
am ma
Ġbe ating
Ġso ot
ad ing
ĠM uffin
ug s
Ġsp ed
fu s
ĠA manda
rom ise
ust y
ĠF uzz
ĠF iona
ĠF ido
Ġcle ared
Åĵ Okay
Ġdan gers
Ġclean er
ĠG ina
Ġrain s
Ġhop s
Ġmon ths
Ġtable t
Ġju dges
Ġshap ed
Ġmin ts
Ġband ages
Ġpan icked
Ġtid ied
Ġclear ly
Ġfill s
Ġadd ress
Ġfis hes
Ġcover ing
Ġmagn if
Ġfrown ing
iv ia
Ġcudd les
Ġsurf ing
Ġmill ion
Ġexerc ises
Ġbreat hing
Ġstro ke
Ġpur rs
Ġdiscuss ing
Ġbrus hing
ĠMad dy
ĠQu ick
Ġopp os
Ġinsp ired
Ġcond uctor
step s
Ġtiss ue
Ġtar get
Ġvegg ies
P enny
w ater
Ġd ep
en ing
Ġn ur
Ġr out
Ġso aking
Ġk ittens
Ġse als
Ġcan vas
Ġal ien
Ġtre ated
Ġthan king
ĠF ighting
Ġtr ans
Ġunt ie
ĠC le
ast y
Åĵ Hey
Ġdoor way
ĠP aula
ĠR ock
Ġnight s
ĠThat Ã¢
Ġsmell ing
ĠK elly
Ġspark s
Ġspr out
Ġpack ages
Ġdes per
ail s
Ġpuzz led
Ġfoot steps
Ġtool box
ĠAl i
ĠAl ison
Ġremind ing
Ġtidy ing
Ġwis ely
Ġsquee zing
ĠU p
Ġtravel s
Ġgrand father
Ġpige ons
Ġload ing
Ġart work
Ġmagaz ines
Ġdisplay ed
Ġprevent ed
Ch loe
Ġsque ak
Ġadmir ation
Ġglo be
ĠMay a
Ġmateri al
Ġexperien ced
Ġrefu se
Ġoccas ion
eel ing
Ġconvin ced
Ġreun ited
H annah
b age
c ent
m i
p en
Ġs ou
re w
Ġc oug
Ġhe aven
Ġm oo
ĠT ake
ar row
Ġg er
Ġn asty
Ġsa v
ĠS leep
ig hing
Ġr ays
Ġmom mies
ĠM ichael
Ġan k
Ġsp y
lp h
are t
Ġgood by
Ġch in
Ġch illy
Ġbl inking
ink le
Ġfo nd
Åĵ Where
ĠP u
Ġdress ing
Ġduck ling
Ġswim mer
ord inary
Ġdist ract
Ġdes pite
Ġimag inary
Ġhon king
Ġshr unk
Ġchocol ates
Ġban ged
Ġple aded
Ġsol ving
Ġtrust ing
Ġgar bage
Ġcrown s
Ġcam el
Ġguess ing
Ġextra ordinary
Ġsend ing
.. ."
Ġrot ting
Ġvehic les
Ġsque aked
Ġsew ing
Ġaccompl ished
Ġsway ed
Ġstern ly
Cl ara
ĠTess a
Tw o
Ġmunch ing
Ġev il
Ġoppos ite
Ġgoodby es
C laire
D ear
T ake
f ia
g ain
h ind
v ant
v room
he w
Ġb amboo
is ions
id ence
or i
ĠH allow
Ġr in
ĠI m
Ġwith in
ĠB ri
ĠB aa
Ġdo d
Ġdo ves
Ġwh oo
ĠM aisy
Ġlo c
Ġsp at
Ġex ch
Ġkn ots
Ġman ners
Ġla pt
Ġla sers
Ġfl ipped
ild a
Åĵ But
Ġdis c
ĠN ora
ĠDo g
air y
ugg y
Ġcomfort ing
sc reen
Ġgener osity
Ġscr ub
Ġpray ers
ĠSn ap
Ġweal th
Ġenv iron
ĠFin n
ĠPe pper
Ġemer ged
Ġobey ed
Ġcub es
ĠMad die
Ġchip munk
Ġcustom ers
cited ly
Ġmast erp
Ġrespond ed
Ġnibb led
Ġcoc oon
Ġgest ure
ĠHallow een
Ġenviron ment
A ny
W atch
e edy
o c
r ink
Ġhe n
Ġm ood
Ġm aker
Ġn atur
ĠS uper
or ation
Ġin ter
Ġshe ets
itt ered
ly n
ic ate
Ġbr ide
ĠW elcome
Ġdec l
Ġch anges
Ġsun screen
Ġbra ins
Ġdon key
Ġsurpr ising
ac les
Ġbus iness
Ġmove ments
Ġmar ve
Ġvisit s
Ġgrow s
Ġcoll ap
Ġaf ar
Ġstorm s
Ġpin ching
Ġdig s
Ġaw ful
Al ways
Ġunl o
Ġshovel s
Ġconf idence
Ġbury ing
Ġpeel ed
Ġencourage ment
Ġpadd ling
Ġglitter ing
Ġforgi ving
int ment
Ġty pe
Ġwrink led
Surpr ise
Ġank le
Ġlapt op
J ess
R osie
d ress
e ven
p s
w e
w orm
Ġt ing
Ġwa kes
re ct
ĠT aking
Ġg room
id er
at s
ĠS l
ĠS imon
an ish
im mered
Ġfor m
el ie
ry ing
art led
ĠW illiam
Ġwho ever
Ġdec isions
Ġfl ick
Ġfl ip
Ġwater s
ip es
ĠR yan
Ġforg ives
iss a
Ġbit s
Ġhair dress
bo ards
Ġlesson s
Ġfloor s
Ġtight er
Ġcomp ared
ĠJen nie
Ġcup cake
Ġjob s
ĠO ther
Ġtrouble s
Ġpresent ed
Ġmatter ed
Ġrec order
Ġpri ck
Ġswe ep
Ġpand as
ĠSnow man
Ġtire s
Ġrepe ating
Ġspell s
Ġlip stick
Ġlangu ages
Ġbother ing
Ġsnap s
ĠOl ivia
ĠMe g
Ġleap t
Ġbru ises
Ġcor rect
Ġneare st
Ġsadd er
Ġthorn s
Ġconfl ict
Ġnodd ing
Ġtrans f
Ġger ms
Ġnatur al
Ġhairdress er
B uddy
B uzz
B oys
G et
J essie
P l
e vin
l t
l ine
p es
w hat
Ġs ill
Ġs igning
Ġto ssed
Ġb ou
ou ched
Ġd ump
Ġp ins
le ts
Ġst eth
Ġsh all
Ġre ly
Ġlo ses
Ġgirl Ã¢
Ġcl ues
Ġal though
Ġsc ent
Ġsc ores
âĤ¬ ,
ĠL ooking
Ġpo se
Ġexpl oration
Åĵ Maybe
Åĵ See
Ġwind ing
ĠG re
ac le
Ġclos ing
Ġlea king
Ġcra cks
Ġpart ed
Ġdri pping
Ġsnow y
sp e
Ġdes igning
Ġsur v
Ġsel f
ĠBr uce
ĠBe cky
Ġadd s
Ġjog ger
Ġham ster
Ġfrown s
Ġswe at
Ġcomb ed
Ġtap ed
Ġcomput ers
Ġwindows ill
Ġunpack ing
Ġhook s
Ġtear ing
ĠPat ty
Ġobser ving
Ġexplain s
Ġappl ause
Ġluck ily
Ġbur ger
Ġfreez ing
Ġpur r
Ġspit s
ĠV room
Ġoutfit s
Ġseagull s
Ġtexture s
ĠNan a
Ġcott age
Ġinstrum ents
Ġexplo ded
Br own
ĠSk ip
Ġbou qu
Ġsteth os
B ang
J oy
S ince
b elt
b ank
b aby
j ack
k er
Ġc ongratul
ing ing
Ġg all
Ġy el
Ġr owed
ĠB ra
ĠB ecause
Ġli es
Ġsh allow
Ġsh orter
Ġsc ri
Ġfa iled
ĠYou Ã¢
Ġcar ries
ĠL ia
Ġcare s
ĠD espite
ant ha
bb ling
and a
Ġstr um
Ġsn apping
ort unately
ĠJo anna
ast e
Åĵ The
Åĵ Who
be e
Let Ã¢
Ġcomp ete
ĠK aty
Ġpro d
Ġca w
Ġgigg les
ĠAl bert
Ġspray s
Ġrobot s
Ġstret ches
Ġ' '
Ġclass mates
Ġwis er
ĠZ oey
Me anwhile
Ġapolog ised
Ġscare crow
Ġswe aty
Ġbeet les
Ġmem ber
Ġer ase
Ġstamp ed
Ġscoot ers
Ġfilm s
Ġbeep ed
ĠRo ger
Ġtub es
Ġtrave ling
Ġlumber jack
Ġbother ed
Ġsimp ly
Ġrepeat s
Ġsiren s
Ġfoc us
asm ine
Ġcott on
ĠLi bby
