{"<|pad|>":0,"<|bos|>":1,"<|eos|>":2,"<|image|>":3,"<|/image|>":4,"<|user|>":5,"<|assistant|>":6,"!":7,"\"":8,"#":9,"$":10,"%":11,"&":12,"'":13,"(":14,")":15,"*":16,"+":17,",":18,"-":19,".":20,"/":21,"0":22,"1":23,"2":24,"3":25,"4":26,"5":27,"6":28,"7":29,"8":30,"9":31,":":32,";":33,"<":34,"=":35,">":36,"?":37,"@":38,"A":39,"B":40,"C":41,"D":42,"E":43,"F":44,"G":45,"H":46,"I":47,"J":48,"K":49,"L":50,"M":51,"N":52,"O":53,"P":54,"Q":55,"R":56,"S":57,"T":58,"U":59,"V":60,"W":61,"X":62,"Y":63,"Z":64,"[":65,"\\":66,"]":67,"^":68,"_":69,"`":70,"a":71,"b":72,"c":73,"d":74,"e":75,"f":76,"g":77,"h":78,"i":79,"j":80,"k":81,"l":82,"m":83,"n":84,"o":85,"p":86,"q":87,"r":88,"s":89,"t":90,"u":91,"v":92,"w":93,"x":94,"y":95,"z":96,"{":97,"|":98,"}":99,"~":100,"¡":101,"¢":102,"£":103,"¤":104,"¥":105,"¦":106,"§":107,"¨":108,"©":109,"ª":110,"«":111,"¬":112,"®":113,"¯":114,"°":115,"±":116,"²":117,"³":118,"´":119,"µ":120,"¶":121,"·":122,"¸":123,"¹":124,"º":125,"»":126,"¼":127,"½":128,"¾":129,"¿":130,"À":131,"Á":132,"Â":133,"Ã":134,"Ä":135,"Å":136,"Æ":137,"Ç":138,"È":139,"É":140,"Ê":141,"Ë":142,"Ì":143,"Í":144,"Î":145,"Ï":146,"Ð":147,"Ñ":148,"Ò":149,"Ó":150,"Ô":151,"Õ":152,"Ö":153,"×":154,"Ø":155,"Ù":156,"Ú":157,"Û":158,"Ü":159,"Ý":160,"Þ":161,"ß":162,"à":163,"á":164,"â":165,"ã":166,"ä":167,"å":168,"æ":169,"ç":170,"è":171,"é":172,"ê":173,"ë":174,"ì":175,"í":176,"î":177,"ï":178,"ð":179,"ñ":180,"ò":181,"ó":182,"ô":183,"õ":184,"ö":185,"÷":186,"ø":187,"ù":188,"ú":189,"û":190,"ü":191,"ý":192,"þ":193,"ÿ":194,"Ā":195,"ā":196,"Ă":197,"ă":198,"Ą":199,"ą":200,"Ć":201,"ć":202,"Ĉ":203,"ĉ":204,"Ċ":205,"ċ":206,"Č":207,"č":208,"Ď":209,"ď":210,"Đ":211,"đ":212,"Ē":213,"ē":214,"Ĕ":215,"ĕ":216,"Ė":217,"ė":218,"Ę":219,"ę":220,"Ě":221,"ě":222,"Ĝ":223,"ĝ":224,"Ğ":225,"ğ":226,"Ġ":227,"ġ":228,"Ģ":229,"ģ":230,"Ĥ":231,"ĥ":232,"Ħ":233,"ħ":234,"Ĩ":235,"ĩ":236,"Ī":237,"ī":238,"Ĭ":239,"ĭ":240,"Į":241,"į":242,"İ":243,"ı":244,"Ĳ":245,"ĳ":246,"Ĵ":247,"ĵ":248,"Ķ":249,"ķ":250,"ĸ":251,"Ĺ":252,"ĺ":253,"Ļ":254,"ļ":255,"Ľ":256,"ľ":257,"Ŀ":258,"ŀ":259,"Ł":260,"ł":261,"Ń":262,"he":263,"Ġt":264,"Ġa":265,"Ġs":266,"Ġw":267,"nd":268,"Ġthe":269,"ed":270,"Ġand":271,"Ġto":272,"Ġb":273,"in":274,"Ġh":275,"Ġwa":276,"re":277,"Ġf":278,"ou":279,"it":280,"Ġl":281,"Ġc":282,"Ġd":283,"er":284,"Ġhe":285,"Ġm":286,"Ġp":287,"Ġwas":288,"om":289,"ĠT":290,"Ġo":291,"ay":292,"ar":293,"is":294,"ing":295,"il":296,"Ġg":297,"id":298,"at":299,"en":300,"Ġn":301,"Ġsa":302,"Ġha":303,"ĠS":304,"ĠThe":305,"an":306,"im":307,"or":308,"on":309,"Ġit":310,"Ġth":311,"ll":312,"le":313,"ĠH":314,"Ġher":315,"ot":316,"et":317,"ir":318,"ĠShe":319,"ĠHe":320,"es":321,"Ġin":322,"ver":323,"ut":324,"ow":325,"ĠThey":326,"ck":327,"Ġe":328,"Ġu":329,"ld":330,"ily":331,"Ġy":332,"oo":333,"Ġsaid":334,"ig":335,"Ġr":336,"am":337,"Ġbe":338,"Ġst":339,"Ġ\"":340,"ce":341,"ĠI":342,"Ġshe":343,"ke":344,"pp":345,"ith":346,"Lily":347,"ve":348,"Ġwith":349,"On":350,"Ġon":351,"Ġof":352,"ri":353,"ked":354,"Ġhis":355,"Ġyou":356,"Ġpl":357,"Ġso":358,"nt":359,"very":360,"ad":361,"Ġday":362,"Ġthat":363,"Ġup":364,"ĠLily":365,"Ġplay":366,"Ġhad":367,"Ġthey":368,"st":369,"Ġwe":370,"Ġmom":371,"Ġfor":372,"el":373,"my":374,"ould":375,"un":376,"ĠB":377,"'s":378,"The":379,"Ġli":380,"Ġhapp":381,"ch":382,"ent":383,"itt":384,"Ġwant":385,"her":386,"Ġsh":387,"out":388,"Ġdo":389,"Ġnot":390,"Ġvery":391,"ome":392,"ly":393,"all":394,"ound":395,"end":396,"ittle":397,"ime":398,"se":399,"Ġwh":400,"Ġk":401,"Ġlittle":402,"Ġtime":403,"Ġthere":404,"al":405,"Ġne":406,"ht":407,"Ġhappy":408,"Ġbig":409,"Ġre":410,"ĠM":411,"Ġis":412,"ĠIt":413,"Ġsm":414,"Ġbut":415,"ĠĊ":416,"ra":417,"Ġsaw":418,"riend":419,"Ġfriend":420,"Ġan":421,"ry":422,"Ġas":423,"ack":424,".\"":425,"One":426,"ide":427,"ake":428,"'t":429,"ved":430,"ter":431,"ug":432,"Once":433,"Ġlo":434,"Ġloo":435,"Ġwere":436,"ore":437,"!\"":438,"ec":439,"Ġhim":440,"Ġbo":441,"Ġtoo":442,"ĠTim":443,"Ġse":444,"Ġgo":445,"irl":446,"Ġupon":447,"Ġwanted":448,"Ġj":449,"ard":450,"Ġgirl":451,"ill":452,"Ġare":453,"Ġthem":454,"Ġout":455,"Ġat":456,"Ġtheir":457,"ind":458,"Ġsp":459,"way":460,"fu":461,"Ġdid":462,"ur":463,"Ġcould":464,"ĠA":465,"hen":466,"Ġsmil":467,"ain":468,"Ġhave":469,"art":470,"Ġwent":471,"hed":472,"Ġex":473,"rom":474,"ic":475,"round":476,"lp":477,"Ġnam":478,"Ġcan":479,"ful":480,"Ġfriends":481,"ĠBen":482,"hing":483,"Ġhelp":484,"Ġkn":485,"Ġall":486,"ĠJ":487,"ood":488,"ight":489,"?\"":490,"um":491,"ark":492,"one":493,"Ġback":494,"Ġfun":495,"Ġcl":496,"are":497,"Ġsay":498,"Ġle":499,"You":500,"Ġnamed":501,"Ġno":502,"ĠTom":503,"Ġloved":504,"op":505,"elt":506,"ĠTimmy":507,"ĠOne":508,"oug":509,"Ġal":510,"Ġsc":511,"side":512,"Ġfelt":513,"Ġtoy":514,"ick":515,"Ġsmiled":516,"Ġman":517,"Ġfe":518,"Ġasked":519,"Ġsee":520,"ame":521,"Ġlooked":522,"Ġlike":523,"Ġaround":524,"Ġsome":525,"omet":526,"ure":527,"Ġro":528,"Ġboy":529,"Ġbr":530,"get":531,"Ġwould":532,"Ġme":533,"ĠW":534,"Ġbir":535,"ong":536,"ice":537,"Ġstart":538,"ss":539,"Ġsomet":540,"Ġbird":541,"ings":542,"Ġfa":543,"Ġwor":544,"Ġag":545,"ade":546,"Ġmake":547,"Ġwhat":548,"Ġtre":549,"dd":550,"king":551,"gether":552,"own":553,"ĠBut":554,"Ġaway":555,"Ġran":556,"ag":557,"Ġstarted":558,",\"":559,"ĠYou":560,"oud":561,"Ġmade":562,"ared":563,"ie":564,"Ġtogether":565,"Ã¢":566,"âĤ":567,"âĤ¬":568,"Ġco":569,"Ġsays":570,"Ġpark":571,"Ġsomething":572,"if":573,"Ġcar":574,"ther":575,"ited":576,"Ġsad":577,"Ġput":578,"Ġnew":579,"Ġother":580,"Ġpr":581,"ble":582,"Ġagain":583,"Ġfrom":584,"Ġexc":585,"Ġhug":586,"Ġmu":587,"Ġhome":588,"Ġla":589,"ell":590,"Ġwhen":591,"Ġwho":592,"ook":593,"Ġgood":594,"est":595,"ried":596,"Ġfound":597,"ĠL":598,"Ġthen":599,"ach":600,"ep":601,"Ġdec":602,"Ġfl":603,"pped":604,"Ġch":605,"as":606,"Ġplaying":607,"ought":608,"Ġwal":609,"Ġget":610,"qu":611,"ally":612,"hat":613,"ĠE":614,"Ġthings":615,"Ġsw":616,"uck":617,"Ġgot":618,"pl":619,"ous":620,"Ġliked":621,"nn":622,"Ġevery":623,"Ġdecid":624,"Ġexcited":625,"ave":626,"Ġdecided":627,"ro":628,"Ġcame":629,"ax":630,"Ġbl":631,"Ġbec":632,"Ġdown":633,"Ġyour":634,"Ġfind":635,"Ġcare":636,"Ġdog":637,"ust":638,"Ġscared":639,"Ġone":640,"Ġfeel":641,"Ġv":642,"Ġthan":643,"ist":644,"ouse":645,"ny":646,"Ġdad":647,"ĠD":648,"ap":649,"ĠMom":650,"Ġab":651,"arn":652,"ara":653,"ways":654,"ue":655,"Ġdidn":656,"nna":657,"Ġgra":658,"udd":659,"Ġmy":660,"Ġalways":661,"ant":662,"Ġtook":663,"ers":664,"They":665,"Ġke":666,"us":667,"Ġmommy":668,"ess":669,"ĠF":670,"fe":671,"Ġabout":672,"our":673,"Ġlot":674,"Ġtoys":675,"Ġtree":676,"Ġpo":677,"Ġkne":678,"Ġball":679,"Ġlook":680,"Ġwill":681,"nder":682,"Ġoutside":683,"ite":684,"Ġthought":685,"eci":686,"ened":687,"Ġta":688,"Ġlearn":689,"bb":690,"ise":691,"ched":692,"Ġmore":693,"Ġpre":694,"Ġknow":695,"Ġho":696,"Ġint":697,"ĠSam":698,"ged":699,"ecial":700,"Ġspecial":701,"Ġold":702,"Ġtake":703,"Ġsor":704,"ĠMax":705,"Ġlaug":706,"Ġpe":707,"Ġknew":708,"ive":709,"Ġcat":710,"ma":711,"fter":712,"Ġhow":713,"Ġany":714,"udden":715,"au":716,"Ġshow":717,"Ġtr":718,"Ġmuch":719,"ia":720,"uddenly":721,"Ġsorry":722,"and":723,"Ġsl":724,"ink":725,"But":726,"ish":727,"Ġrun":728,"Ġhouse":729,"Ġtw":730,"ven":731,"Ġtold":732,"Ġor":733,"Ġsk":734,"Ġop":735,"Ġhand":736,"Ġsun":737,"Ġinside":738,"Ġgave":739,"Ġtried":740,"Ġmo":741,"Ġclo":742,"Ġinto":743,"Ġwater":744,"Ġproud":745,"ank":746,"Ġcouldn":747,"Ġover":748,"Ġqu":749,"ause":750,"ate":751,"Ġnever":752,"ump":753,"ty":754,"other":755,"ĠEvery":756,"Ġen":757,"Ġeat":758,"Ġif":759,"ace":760,"Ġroom":761,"Ġplayed":762,"etter":763,"Ġheard":764,"ge":765,"Ġexpl":766,"Ġeach":767,"Ġpick":768,"Ġpret":769,"ion":770,"Ġthis":771,"by":772,"here":773,"dy":774,"ĠWe":775,"Tom":776,"ak":777,"Ġbecause":778,"ĠAnna":779,"Ġhugged":780,"Ġstr":781,"Ġcom":782,"Ġwat":783,"Ġgre":784,"Ġbox":785,"Ġjust":786,"Ġnice":787,"ile":788,"ĠSara":789,"oth":790,"Ġneed":791,"iz":792,"Mom":793,"Ġjo":794,"Ġoff":795,"Ġmany":796,"Ġlong":797,"Ġbear":798,"Ġsmall":799,"Ġfo":800,"Ġbu":801,"ving":802,"Ġsn":803,"ough":804,"Ġlearned":805,"'m":806,"ort":807,"ine":808,"Ġunt":809,"uc":810,"imal":811,"Ġanimal":812,"gry":813,"Ġtry":814,"Ġbetter":815,"ild":816,"sel":817,"Ġuntil":818,"sed":819,"Ġlove":820,"urt":821,"ĠJack":822,"ft":823,"Ġim":824,"em":825,"Ġdre":826,"Ġend":827,"Ġkind":828,"Ġcall":829,"Ġcle":830,"ber":831,"Ġflow":832,"Ġad":833,"Ġbest":834,"urn":835,"vent":836,"ĠHer":837,"He":838,"aut":839,"ĠAnd":840,"ĠSo":841,"ars":842,"Ġfi":843,"Ġpu":844,"ady":845,"Ġcareful":846,"Ġsky":847,"Ġfast":848,"Ġgr":849,"ves":850,"Ġthanked":851,"Ġeven":852,"Ġbeaut":853,"ĠC":854,"Yes":855,"Ġbra":856,"urp":857,"arden":858,"ĠJo":859,"Ġgarden":860,"Ġdon":861,"pt":862,"lly":863,"Ġche":864,"Ġte":865,"ĠMia":866,"Ġby":867,"self":868,"Th":869,"Ġlots":870,"ies":871,"iny":872,"Ġgl":873,"Ġloud":874,"Ġlaughed":875,"Ġfam":876,"Ġjump":877,"ase":878,"Ġbeauti":879,"lew":880,"Ġlist":881,"Ġstill":882,"wn":883,"Ġbeautiful":884,"ĠFrom":885,"rm":886,"Ġhard":887,"Ġway":888,"Ġcome":889,"Ġhurt":890,"Ġwo":891,"Ġanimals":892,"It":893,"ct":894,"Ġra":895,"ĠHis":896,"ast":897,"hes":898,"Ġcol":899,"Ġunder":900,"ĠThen":901,"Ġrem":902,"Åĵ":903,"ning":904,"Ġsafe":905,"Ġstay":906,"ect":907,"be":908,"Ġlet":909,"Ġlived":910,"Ġboth":911,"Tim":912,"ool":913,"Ġcu":914,"ople":915,"Ġimp":916,"Ġbrave":917,"Ġfamily":918,"Ġits":919,"kay":920,"Ġbad":921,"ob":922,"Ġdan":923,"Ġred":924,"Ġstor":925,"ished":926,"Ġbook":927,"ane":928,"Ġtwo":929,"When":930,"Ġfin":931,"ree":932,"Ġpeople":933,"ucy":934,"Ġshould":935,"urpr":936,"ock":937,"Ġcalled":938,"ĠÃ¢":939,"Ġflew":940,"Ġfly":941,"Ġpic":942,"igh":943,"Ġwalked":944,"Ġsurpr":945,"Ġangry":946,"Ġsoon":947,"Ġfore":948,"ĠWhen":949,"Ġdoll":950,"xt":951,"led":952,"Ġkept":953,"Ġclean":954,"Ġshare":955,"fore":956,"ised":957,"Ġrock":958,"Ġpretty":959,"No":960,"Ġdra":961,"hn":962,"Ġgoing":963,"ip":964,"Ġdoor":965,"Let":966,"Ġcon":967,"ĠP":968,"Ġkeep":969,"Ġground":970,"Ġshiny":971,"Ġopened":972,"dded":973,"Ġadvent":974,"ummy":975,"Ġreal":976,"Ġnow":977,"Ġwind":978,"Ġcry":979,"illy":980,"Ġexplore":981,"age":982,"Ġcre":983,"Ġsto":984,"Ben":985,"Ġide":986,"Ġbefore":987,"Ġnoise":988,"Ġfr":989,"Ġcolor":990,"Ġturn":991,"ary":992,"les":993,"so":994,"Ġfar":995,"ture":996,"âĤ¬â":997,"Ġalso":998,"Ġpicked":999,"Ġfeeling":1000,"ied":1001,"Ġwhile":1002,"Ġey":1003,"Ġidea":1004,"imb":1005,"oon":1006,"oy":1007,"Ġclimb":1008,"Ġnext":1009,"ff":1010,"thing":1011,"Ġbed":1012,"Ġun":1013,"Ġwr":1014,"What":1015,"eet":1016,"Ġthr":1017,"Ġhas":1018,"Ġwalking":1019,"ĠLucy":1020,"Ġsmile":1021,"uch":1022,"Ġpicture":1023,"That":1024,"ger":1025,"iced":1026,"Ġtruck":1027,"Ġnodded":1028,"Ġadventure":1029,"th":1030,"Ġma":1031,"aybe":1032,"Ħ¢":1033,"âĤ¬âĦ¢":1034,"kes":1035,"Ġbeing":1036,"ember":1037,"ĠG":1038,"ted":1039,"Thank":1040,"ious":1041,"joy":1042,"ac":1043,"Ġclos":1044,"ting":1045,"Ġgive":1046,"Ġfood":1047,"Ġtra":1048,"Ġlooking":1049,"Ġwait":1050,"Ġlisten":1051,"ĠDad":1052,"Ġstopped":1053,"Ġblue":1054,"ized":1055,"ught":1056,"Ġtow":1057,"Ġremember":1058,"Ġbre":1059,"Ġdif":1060,"Ġafter":1061,"Ġbro":1062,"Ġhands":1063,"ĠSuddenly":1064,"Ġnoticed":1065,"Ġthink":1066,"maz":1067,"Ġeyes":1068,"Ġamaz":1069,"Ġdel":1070,"Ġwalk":1071,"able":1072,"Ġquick":1073,"Ġown":1074,"Ġenjoy":1075,"Ġforest":1076,"She":1077,"Ġdis":1078,"Ġslide":1079,"Ġgreat":1080,"Ġever":1081,"Ġshowed":1082,"Ġrepl":1083,"Ġwatch":1084,"irst":1085,"Ġstrong":1086,"Ġflowers":1087,"Ġapp":1088,"bbit":1089,"Ġeveryone":1090,"Ġimport":1091,"Ġwonder":1092,"Ġrain":1093,"Ġfish":1094,"Ġwork":1095,"llow":1096,"Ġvo":1097,"Ġac":1098,"Ġtal":1099,"Suddenly":1100,"Ġboat":1101,"Ġnear":1102,"Ġstick":1103,"Ġask":1104,"ĠSp":1105,"Ġokay":1106,"Ġhead":1107,"Ġimportant":1108,"Ġwhere":1109,"Ġshout":1110,"Ġmean":1111,"Ġrabbit":1112,"gan":1113,"Ġright":1114,"Ġplace":1115,"Ġus":1116,"bye":1117,"Ġsound":1118,"bbed":1119,"Ġquickly":1120,"Ġyell":1121,"Ġfollow":1122,"Ġreplied":1123,"Ġuse":1124,"Ġbright":1125,"lease":1126,"ĠBob":1127,"Ġwatched":1128,"Ġdress":1129,"Ġde":1130,"fere":1131,"ange":1132,"Ġbecame":1133,"day":1134,"ĠN":1135,"Ġdiffere":1136,"ath":1137,"Ġmor":1138,"ered":1139,"Ġar":1140,"co":1141,"Ġsure":1142,"We":1143,"ndma":1144,"Ġcake":1145,"Ġchild":1146,"Ġhigh":1147,"Ġcuri":1148,"Ġbeen":1149,"ĠR":1150,"Ġmag":1151,"ount":1152,"Ġstore":1153,"Ġour":1154,"Ġwarm":1155,"Ġye":1156,"aught":1157,"Ġsqu":1158,"Ġhop":1159,"Ġface":1160,"Ġgoodbye":1161,"Ġforg":1162,"more":1163,"Ġdifferent":1164,"Ġanymore":1165,"Ġcloser":1166,"Ġdoes":1167,"Anna":1168,"Look":1169,"So":1170,"leep":1171,"ng":1172,"Ġcurious":1173,"Ġcook":1174,"Ġtell":1175,"Ġam":1176,"Ġvoice":1177,"Ġnight":1178,"itc":1179,"ila":1180,"imes":1181,"Ġpain":1182,"ĠSue":1183,"Ġbel":1184,"ĠSpot":1185,"ired":1186,"Ġbutter":1187,"Ġopen":1188,"ached":1189,"Ġfav":1190,"Ġpa":1191,"Her":1192,"Ġhelped":1193,"Ġfirst":1194,"Ġfell":1195,"ull":1196,"Ġcont":1197,"Sara":1198,"ĠMommy":1199,"Ġhappened":1200,"Ġz":1201,"ĠTh":1202,"Ġlea":1203,"Ġthree":1204,"Ġsees":1205,"iss":1206,"Can":1207,"Ġkitc":1208,"Ġkitchen":1209,"Jo":1210,"Ġpull":1211,"Ġfire":1212,"Ġflo":1213,"Ġbus":1214,"Ġbirds":1215,"Ġblock":1216,"Ġgrabbed":1217,"Ġsweet":1218,"After":1219,"Ġstory":1220,"Ġhere":1221,"Ġonly":1222,"Ġkid":1223,"Ġbrother":1224,"Ġdr":1225,"Ġsand":1226,"unny":1227,"Ġglad":1228,"Ġbit":1229,"Ġru":1230,"Ġgrass":1231,"Ġrealized":1232,"ppy":1233,"ater":1234,"Ġjumped":1235,"orn":1236,"Ġbeh":1237,"Ġmon":1238,"Ġper":1239,"Ġdraw":1240,"Ġstop":1241,"Ġreached":1242,"Ġcra":1243,"ĠEveryone":1244,"Ġsing":1245,"ins":1246,"Ġhaving":1247,"Ġcr":1248,"Ġmess":1249,"zy":1250,"ĠDo":1251,"nts":1252,"Ġrest":1253,"uff":1254,"Ġba":1255,"Ġthrough":1256,"Ġtri":1257,"Ġprin":1258,"Ġate":1259,"ĠAs":1260,"ĠJane":1261,"Ġsoft":1262,"Ġless":1263,"Ġpap":1264,"isy":1265,"Ġready":1266,"Ġyummy":1267,"where":1268,"Ġworld":1269,"'re":1270,"Ġhat":1271,"akes":1272,"Ġgame":1273,"Ġfix":1274,"Ġreally":1275,"ĠLet":1276,"Ġlady":1277,"Ġshouted":1278,"Ġpare":1279,"Ġfavor":1280,"Ġbegan":1281,"Ġfavorite":1282,"Ġhimself":1283,"Ġunderst":1284,"Ġcut":1285,"Ġtired":1286,"ĠSarah":1287,"Ġmagic":1288,"Ġduck":1289,"fully":1290,"Ġpretend":1291,"ken":1292,"Ġused":1293,"Ġmum":1294,"Ġtast":1295,"ather":1296,"Ġbutterf":1297,"sh":1298,"Ġthing":1299,"Ġdone":1300,"Ġworry":1301,"Ġcoming":1302,"ign":1303,"Ġmaking":1304,"illed":1305,"Ġcatch":1306,"ĠCan":1307,"Ġkids":1308,"Ġfunny":1309,"Ġname":1310,"Ġpus":1311,"eddy":1312,"Wow":1313,"Ġseen":1314,"As":1315,"ster":1316,"Ġpond":1317,"Ġlooks":1318,"Ġcars":1319,"ĠThat":1320,"Ġcried":1321,"Ġfro":1322,"Ġste":1323,"Timmy":1324,"Ġanother":1325,"ient":1326,"Ġtop":1327,"air":1328,"olly":1329,"Ġwhy":1330,"Mommy":1331,"Ġprom":1332,"Ġwaved":1333,"Ġflower":1334,"Ġbag":1335,"Ġpart":1336,"Ġbunny":1337,"Ġhair":1338,"Ġparents":1339,"Ġtouch":1340,"bo":1341,"ards":1342,"Don":1343,"Ġpaper":1344,"Ġgi":1345,"Ġdin":1346,"Ġlight":1347,"Ġgreen":1348,"Ġdri":1349,"Ġcool":1350,"Ġdelic":1351,"Ġdro":1352,"Ġlesson":1353,"Ġhole":1354,"Ġswim":1355,"ĠJohn":1356,"hy":1357,"ĠJoe":1358,"Ġtrees":1359,"iver":1360,"Ġsurprise":1361,"Ġyellow":1362,"Ġremembered":1363,"Ġbehind":1364,"Ġfloor":1365,"oney":1366,"Ġhold":1367,"ely":1368,"ued":1369,"Ġworked":1370,"mer":1371,"Ġfull":1372,"Ġthank":1373,"Ġrunning":1374,"rel":1375,"Ġhopped":1376,"ation":1377,"Ġsleep":1378,"andy":1379,"Ġwished":1380,"ssed":1381,"Ġspot":1382,"Ġsmell":1383,"Ġset":1384,"ike":1385,"Ġblocks":1386,"Ġcold":1387,"Ġlost":1388,"Ġsat":1389,"Ġhappily":1390,"Ġread":1391,"Ġwear":1392,"Ġdoing":1393,"Ġneeded":1394,"Ġdream":1395,"Ġdark":1396,"Ġmouse":1397,"Ġstre":1398,"Ġbow":1399,"aisy":1400,"Ġwood":1401,"Ġslow":1402,"Ġlaugh":1403,"ren":1404,"Ġbutterfly":1405,"Ġsho":1406,"Ġcarefully":1407,"Sam":1408,"Ġtall":1409,"Ġyears":1410,"Ġleft":1411,"Ġ-":1412,"Ġlikes":1413,"Ġcla":1414,"Ġsurprised":1415,"Ġhill":1416,"Ġwindow":1417,"Ġfrog":1418,"Ġswing":1419,"Ġenjoyed":1420,"Ġheld":1421,"Ġfinished":1422,"uit":1423,"Ġsnow":1424,"Ġhear":1425,"Ġmove":1426,"ĠAfter":1427,"Ġbuy":1428,"ens":1429,"\".":1430,"Ġwrong":1431,"Ġice":1432,"Ġperf":1433,"John":1434,"ined":1435,"Ġfollowed":1436,"Ġair":1437,"inally":1438,"Ġarri":1439,"Ġlion":1440,"ul":1441,"ĠBenny":1442,"Ġfair":1443,"Ġherself":1444,"Ġhid":1445,"ĠIn":1446,"Ġanything":1447,"Ġcontin":1448,"Hell":1449,"Hello":1450,"Ġhun":1451,"Ġclose":1452,"Ġdir":1453,"Ġchildren":1454,"Ġbug":1455,"Ġfriendly":1456,"cess":1457,"Ġcast":1458,"Ġrel":1459,"Ġtable":1460,"asure":1461,"Ġbuild":1462,"ĠSally":1463,"Ġarm":1464,"Ġwonderful":1465,"Ġforgot":1466,"Ġmight":1467,"Ġarrived":1468,"ds":1469,"ield":1470,"Ġunderstand":1471,"Ġdelicious":1472,"Ġagre":1473,"Ġel":1474,"Ġtight":1475,"Ġhot":1476,"Ġplease":1477,"Ġcolors":1478,"Ġgrandma":1479,"Ġsomeone":1480,"ner":1481,"Ġsong":1482,"Ġcount":1483,"Ġbooks":1484,"Ġfilled":1485,"Ġgone":1486,"Ġcontinued":1487,"Ġbroken":1488,"Ġable":1489,"Then":1490,"Ġleaves":1491,"Ġscre":1492,"ĠNow":1493,"Ġgent":1494,"av":1495,"Ġelse":1496,"ĠThere":1497,"Ġwants":1498,"Ġcreat":1499,"ask":1500,"sp":1501,"ĠLila":1502,"Ġvis":1503,"Ġwall":1504,"lf":1505,"From":1506,"ĠEm":1507,"ey":1508,"Ġyes":1509,"Ġbaby":1510,"uffy":1511,"Ġpink":1512,"atter":1513,"Ġbreak":1514,"room":1515,"man":1516,"ich":1517,"Ġpoin":1518,"gon":1519,"Ġamazing":1520,"'ll":1521,"ries":1522,"Jack":1523,"Ġmar":1524,"Ġgetting":1525,"ĠMaybe":1526,"icy":1527,"ĠDaisy":1528,"Ġenough":1529,"Ġpictures":1530,"Ġfight":1531,"OK":1532,"Ġwhite":1533,"oup":1534,"Ġcomp":1535,"Ġcastle":1536,"Ġdinner":1537,"Ġagreed":1538,"row":1539,"irrel":1540,"Ġmus":1541,"Ġmoment":1542,"ross":1543,"Ġmother":1544,"Ġstayed":1545,"Ġfall":1546,"ash":1547,"Ġmorning":1548,"Ġcookies":1549,"ced":1550,"Ġscary":1551,"Ġtrying":1552,"Ġfinally":1553,"Ġclimbed":1554,"Ġfur":1555,"Ġsometimes":1556,"Ġsail":1557,"Ġothers":1558,"ĠK":1559,"Ġwet":1560,"Ġpi":1561,"Ġju":1562,"Ġsmiles":1563,"Ġhungry":1564,"ctor":1565,"Ġsquirrel":1566,"Ġtalk":1567,"ence":1568,"ons":1569,"Ġclot":1570,"Ġmet":1571,"Ġclothes":1572,"At":1573,"Ġbrought":1574,"ama":1575,"ister":1576,"red":1577,"oom":1578,"Ġturned":1579,"ĠThis":1580,"Ġroll":1581,"Ġperfect":1582,"Ġdaddy":1583,"lc":1584,"Ġmakes":1585,"Ġcream":1586,"ĠBilly":1587,"This":1588,"Ġfew":1589,"Ġlistened":1590,"oring":1591,"Ġtail":1592,"ee":1593,"Ġeverything":1594,"ance":1595,"Ġwasn":1596,"Ġspl":1597,"Ġstrange":1598,"rot":1599,"Ġsear":1600,"Ġballoon":1601,"Ġbeach":1602,"Ġpol":1603,"Ġpuppy":1604,"Ġjoy":1605,"Ġsit":1606,"ated":1607,"ower":1608,"Ġride":1609,"der":1610,"His":1611,"zz":1612,"Ġwaited":1613,"Ġspark":1614,"ĠJen":1615,"Ġthre":1616,"ĠWhat":1617,"Ġmusic":1618,"wl":1619,"Ġamazed":1620,"ever":1621,"ĠGra":1622,"Ġalone":1623,"ĠTommy":1624,"os":1625,"amp":1626,"pping":1627,"Ġvisit":1628,"Ġsilly":1629,"Ġdanger":1630,"ucky":1631,"Ġteddy":1632,"key":1633,"ott":1634,"Ġasks":1635,"Ġpet":1636,"Ġwoods":1637,"ĠTo":1638,"ope":1639,"Ġdeep":1640,"ang":1641,"Ġhide":1642,"eter":1643,"Ġgrow":1644,"Oh":1645,"Ġleave":1646,"Ġsister":1647,"Ġside":1648,"Ġpie":1649,"ugg":1650,"Ġcloud":1651,"amed":1652,"Ġflying":1653,"med":1654,"Ġlake":1655,"Ġpulled":1656,"Max":1657,"Ġfox":1658,"Ġpromised":1659,"Ġpat":1660,"gg":1661,"ix":1662,"ĠFl":1663,"Ġdance":1664,"Ġtowards":1665,"eces":1666,"Ġtreasure":1667,"me":1668,"Ġsec":1669,"Ġfield":1670,"ames":1671,"ph":1672,"Ġpieces":1673,"ises":1674,"Ġplan":1675,"Maybe":1676,"up":1677,"Ġruns":1678,"Ġshared":1679,"Ġbigger":1680,"cket":1681,"ained":1682,"Ġve":1683,"Ġwon":1684,"Ġthinks":1685,"Ġem":1686,"Ġland":1687,"Ġmoral":1688,"thy":1689,"Ġtreat":1690,"Okay":1691,"Ġowner":1692,"Ġliving":1693,"Ġpen":1694,"Ġele":1695,"Ġbran":1696,"Ġgrate":1697,"ĠAll":1698,"Ġbott":1699,"Ġdolls":1700,"Ġshar":1701,"Ġcandy":1702,"igg":1703,"avy":1704,"Ġparty":1705,"Ġgu":1706,"Ġeverywhere":1707,"Ġgrateful":1708,"cle":1709,"set":1710,"Ġcup":1711,"Ġblank":1712,"Ġbike":1713,"Ġslowly":1714,"outh":1715,"Ġpaint":1716,"Ġjob":1717,"Ġsuch":1718,"sw":1719,"Ġbelie":1720,"Ġworried":1721,"Ġmouth":1722,"Ġwelc":1723,"ĠAmy":1724,"Ġjoin":1725,"Ġblanket":1726,"Ġfaster":1727,"Ġplant":1728,"fort":1729,"ret":1730,"ually":1731,"Ġansw":1732,"Ġbroke":1733,"Ġmoney":1734,"unch":1735,"ling":1736,"iet":1737,"Ġshap":1738,"Ġgif":1739,"Ġreach":1740,"Ġmagical":1741,"Ġsnack":1742,"Ġbar":1743,"Ġcolorful":1744,"ire":1745,"ident":1746,"Ġhelping":1747,"ased":1748,"Ġprincess":1749,"Ġdoctor":1750,"Ġcho":1751,"Ġrace":1752,"Ġdragon":1753,"Ġacc":1754,"Ġriver":1755,"ĠJim":1756,"Sure":1757,"Ġnap":1758,"Ġpro":1759,"Ġsign":1760,"less":1761,"Ġquiet":1762,"Ġcrying":1763,"orm":1764,"ipped":1765,"Ġblack":1766,"ze":1767,"app":1768,"Ġmost":1769,"ol":1770,"Ġdangerous":1771,"Ġstepped":1772,"Ġtrain":1773,"Ġsmart":1774,"Ġatt":1775,"Ġbowl":1776,"Ġfarmer":1777,"Ġmix":1778,"Ġheavy":1779,"Ġpot":1780,"Ġmonster":1781,"ere":1782,"ored":1783,"Ġje":1784,"ming":1785,"bble":1786,"Ġtwins":1787,"Ġwords":1788,"Ġacross":1789,"Ġdirty":1790,"ear":1791,"Ġdisapp":1792,"Ġeating":1793,"Ġsame":1794,"Ġstuck":1795,"ĠJill":1796,"Ġclosed":1797,"ĠMr":1798,"Ġfruit":1799,"Ġthrew":1800,"Ġmust":1801,"Ġtower":1802,"Ġwouldn":1803,"Ġbuck":1804,"cked":1805,"ĠMolly":1806,"Ġspr":1807,"Ġhig":1808,"Ġwin":1809,"Ġaccident":1810,"Ġcray":1811,"Ġmonkey":1812,"Ġcarrot":1813,"Why":1814,"ord":1815,"Ġbath":1816,"Ġheal":1817,"Ġfeels":1818,"Ġteac":1819,"iting":1820,"Ġbite":1821,"eared":1822,"Hi":1823,"asket":1824,"umb":1825,"Ġpushed":1826,"Ġbutt":1827,"Ġtown":1828,"chool":1829,"Ġpast":1830,"Ġbasket":1831,"Ġheart":1832,"Ġhoped":1833,"br":1834,"Ġwithout":1835,"Ġhit":1836,"Ġcoll":1837,"Ġclapped":1838,"Ġpack":1839,"Ġbelieve":1840,"Ġstand":1841,"Ġpers":1842,"Ġforget":1843,"Mia":1844,"Ġschool":1845,"Ġfairy":1846,"Ġcheered":1847,"phant":1848,"Ġbee":1849,"Ġsmo":1850,"ĠFluffy":1851,"Ġfence":1852,"Ġlon":1853,"de":1854,"orrow":1855,"Ġcour":1856,"Ġyard":1857,"Ġbrown":1858,"Ġchair":1859,"ĠDaddy":1860,"Ġdrove":1861,"ract":1862,"Ġadventures":1863,"Ġnoises":1864,"ier":1865,"ventually":1866,"Ġhigher":1867,"Ġlonely":1868,"ass":1869,"Ġca":1870,"Ġelephant":1871,"Ġteacher":1872,"Ġtoday":1873,"ors":1874,"ney":1875,"Ġpocket":1876,"Ġupset":1877,"cy":1878,"vel":1879,"Ġturns":1880,"Ġswings":1881,"Ġgentle":1882,"Ġlonger":1883,"Finally":1884,"Ġwings":1885,"Ġwelcome":1886,"ho":1887,"Ġgames":1888,"ts":1889,"Ġcourse":1890,"Ġben":1891,"Ġexplained":1892,"Ġfree":1893,"Ġneck":1894,"Ġsuddenly":1895,"Ġleg":1896,"Ġjour":1897,"Ġsecret":1898,"Lila":1899,"ead":1900,"Ġstar":1901,"issed":1902,"ountain":1903,"Ġwhe":1904,"Ġdry":1905,"Ġcorn":1906,"Ġsoup":1907,"Ġbring":1908,"Ġshop":1909,"Ġinst":1910,"Ġhappen":1911,"Ġneigh":1912,"Ġdropped":1913,"Ġplac":1914,"Ġhugs":1915,"yard":1916,"Ġtrou":1917,"Ġpiece":1918,"weet":1919,"Ġmin":1920,"Ġthrow":1921,"Ġneighb":1922,"Ġswam":1923,"ible":1924,"Ġstories":1925,"Ġsang":1926,"Ġbackyard":1927,"itting":1928,"ush":1929,"ĠEmma":1930,"pper":1931,"ment":1932,"Ġwish":1933,"Ġrocks":1934,"Ġbucket":1935,"Ġwell":1936,"Ġlate":1937,"ek":1938,"Ġnaught":1939,"Ġapple":1940,"Ġbelong":1941,"Ġowl":1942,"Ġph":1943,"ches":1944,"Ġnaughty":1945,"ces":1946,"Ġtaking":1947,"Ġorange":1948,"Ġalong":1949,"Ġlunch":1950,"ocked":1951,"Ġdrink":1952,"fused":1953,"ung":1954,"Ġjar":1955,"Ġexploring":1956,"Ġexp":1957,"Ġcou":1958,"Ġsea":1959,"Ġes":1960,"Ġyoung":1961,"bow":1962,"Ġdist":1963,"Ġseemed":1964,"Ġsinging":1965,"oun":1966,"Ġshook":1967,"Ġmat":1968,"Ġcaught":1969,"Ġmoved":1970,"Ġwar":1971,"Ġnearby":1972,"Ġpig":1973,"Ġwise":1974,"Ġkey":1975,"Ġshoes":1976,"Ġstars":1977,"Ġtiny":1978,"Ġthough":1979,"Ġwoke":1980,"Ġtom":1981,"Ġdes":1982,"Ġmiss":1983,"Ġaf":1984,"llo":1985,"ĠGrandma":1986,"Ġmail":1987,"ail":1988,"ions":1989,"vered":1990,"Do":1991,"cer":1992,"Ġsick":1993,"col":1994,"ĠThank":1995,"Ġbench":1996,"Ġcarry":1997,"ape":1998,"Ġrelie":1999,"Ġresp":2000,"Ġsu":2001,"Ġnest":2002,"Ġshapes":2003,"cing":2004,"ittens":2005,"sy":2006,"Ġrainbow":2007,"Ġarms":2008,"idge":2009,"Ġbranch":2010,"Ġkite":2011,"Ġmine":2012,"Ġdriver":2013,"Ġjuice":2014,"Ġtakes":2015,"Ġbusy":2016,"Ġob":2017,"aughter":2018,"raid":2019,"Ġafraid":2020,"let":2021,"ĠMary":2022,"Ġwondered":2023,"itch":2024,"Ġmad":2025,"ward":2026,"Ġcir":2027,"Ġsitting":2028,"ining":2029,"Ġcow":2030,"Ġmark":2031,"ese":2032,"Ġmil":2033,"cks":2034,"Ġstreet":2035,"And":2036,"Ġcomes":2037,"Ġinv":2038,"Ġaccidentally":2039,"Ġround":2040,"Ġnose":2041,"Ġdisco":2042,"Ġking":2043,"Ġforever":2044,"Ġ3":2045,"Later":2046,"Ġyear":2047,"Ġfarm":2048,"Ġwhist":2049,"Ġband":2050,"Ġpeace":2051,"Ġdaughter":2052,"Ġlift":2053,"Ġsounds":2054,"sting":2055,"Ġgift":2056,"Ġstu":2057,"ĠFinally":2058,"to":2059,"Ġegg":2060,"Ġcute":2061,"bby":2062,"thday":2063,"ball":2064,"Ġexciting":2065,"adow":2066,"Ġcozy":2067,"Ġfit":2068,"ity":2069,"Ġletter":2070,"Ġpurp":2071,"ĠInside":2072,"Ġcoat":2073,"Ġwra":2074,"Ġboun":2075,"Ġpower":2076,"ours":2077,"Ġrelieved":2078,"Ġhello":2079,"Ġnothing":2080,"Ġpatient":2081,"Ġintere":2082,"Ġholding":2083,"Ġlaughing":2084,"Ġhuge":2085,"Ġjourney":2086,"Of":2087,"Ġmist":2088,"ĠTweet":2089,"shine":2090,"Ġimag":2091,"Ġspoon":2092,"ĠSoon":2093,"Ġswimming":2094,"Ġgigg":2095,"itten":2096,"Ġmilk":2097,"Ġdays":2098,"Ġsunshine":2099,"Ġlife":2100,"Ġcomfort":2101,"Ġfing":2102,"Ġpurple":2103,"gged":2104,"uched":2105,"Ġtouched":2106,"Ġlater":2107,"ĠCome":2108,"ĠMama":2109,"Ġinstead":2110,"Ġact":2111,"Ġbirthday":2112,"irt":2113,"eth":2114,"ĠO":2115,"Ġroad":2116,"Ġcheese":2117,"Ġinc":2118,"fish":2119,"Ġear":2120,"Ġsunny":2121,"unt":2122,"alm":2123,"Ġret":2124,"Ġgives":2125,"Ġsearched":2126,"ped":2127,"Ġbought":2128,"Ġfan":2129,"Ġbread":2130,"Ġpointed":2131,"ness":2132,"Ġanyone":2133,"Ġonto":2134,"Ġbottle":2135,"board":2136,"Ġpres":2137,"Ġducks":2138,"ize":2139,"Ġstorm":2140,"sc":2141,"ose":2142,"Ġhope":2143,"Ġreturn":2144,"Ġlucky":2145,"Ġplane":2146,"ĠSammy":2147,"Ġtasty":2148,"Ġcave":2149,"Ġcreature":2150,"Ġwatching":2151,"blem":2152,"Ġgrab":2153,"Ġpudd":2154,"Hey":2155,"Ġproblem":2156,"Ġce":2157,"Ġsmiling":2158,"ndp":2159,"Ġrope":2160,"Ġkick":2161,"Ġspo":2162,"Ġcrayons":2163,"Ġshell":2164,"Ġeas":2165,"Ġsharp":2166,"aur":2167,"Ġspid":2168,"els":2169,"Ġmeet":2170,"Ġpromise":2171,"Ġsnowman":2172,"Ġperson":2173,"Ġhoney":2174,"Ġdanced":2175,"ond":2176,"Ġpuzz":2177,"epend":2178,"Ġinteresting":2179,"ten":2180,"Ġtalked":2181,"Ġsandw":2182,"Ġbutton":2183,"Ġquest":2184,"Ġcollect":2185,"og":2186,"ove":2187,"Ġzoom":2188,"Ġtrouble":2189,"Ġwide":2190,"Ġcard":2191,"Ġkiss":2192,"ometimes":2193,"itty":2194,"Bob":2195,"Ġsmelled":2196,"Ġspin":2197,"Ġpresent":2198,"Ġent":2199,"Ġap":2200,"Ġlovely":2201,"Ġapples":2202,"Ġpract":2203,"Ġadm":2204,"Ġwrite":2205,"Ġbush":2206,"Ġgiant":2207,"ĠJimmy":2208,"Ġhealthy":2209,"ont":2210,"Ġclouds":2211,"Ġpill":2212,"Ġshining":2213,"Ġgather":2214,"izz":2215,"Ġpar":2216,"umber":2217,"Ġrolled":2218,"isa":2219,"Ġcheer":2220,"Tommy":2221,"Ġplaces":2222,"Good":2223,"Ġfront":2224,"ndpa":2225,"Ġputs":2226,"owed":2227,"Ġwhich":2228,"Ġloves":2229,"Ġsaf":2230,"Ġvill":2231,"Ġsur":2232,"Ġpath":2233,"ĠMittens":2234,"lla":2235,"Ġspotted":2236,"ub":2237,"Ġtun":2238,"Ġhon":2239,"Ġworm":2240,"Ġimpre":2241,"Ġclever":2242,"Ġshr":2243,"Ġorgan":2244,"Ġmyster":2245,"bar":2246,"Ġlay":2247,"Ġmatter":2248,"Ġfeather":2249,"Ġtasted":2250,"Ġwild":2251,"Ġdi":2252,"Ġeag":2253,"Ġzoo":2254,"Ġmed":2255,"Ġtrip":2256,"Ġprot":2257,"Ġrespect":2258,"een":2259,"Ġbark":2260,"Ġhor":2261,"Ġcouch":2262,"Ġsuc":2263,"Ġthin":2264,"Ġpop":2265,"Ġwhole":2266,"Lucy":2267,"ching":2268,"Ġfoot":2269,"Ġprotect":2270,"erly":2271,"Ġasleep":2272,"Ġpile":2273,"Ġspent":2274,"ular":2275,"St":2276,"Ġbuilding":2277,"Ġdirt":2278,"cean":2279,"Ġocean":2280,"Ġlad":2281,"Ġknee":2282,"la":2283,"Ġgoes":2284,"Ġcoin":2285,"Ġspider":2286,"Ġwearing":2287,"barra":2288,"Ġmountain":2289,"Ġpretended":2290,"Ġembarra":2291,"eb":2292,"nic":2293,"Every":2294,"Ġslid":2295,"Ġpicnic":2296,"Ġscreamed":2297,"Ġfaces":2298,"Ġteach":2299,"Ġphone":2300,"hile":2301,"Ġsack":2302,"Ġsnake":2303,"Ġanswer":2304,"ĠWith":2305,"Ġseat":2306,"Ġconfused":2307,"Ġappeared":2308,"Come":2309,"oose":2310,"Jim":2311,"Ġtalking":2312,"Ġgently":2313,"ife":2314,"Ġsal":2315,"Ġfurry":2316,"ex":2317,"Ġhelpful":2318,"Ġmud":2319,"Ġdrive":2320,"Ġmind":2321,"lex":2322,"Ġpan":2323,"Ġpass":2324,"Ġladder":2325,"Ġsupp":2326,"Ġoven":2327,"Ġign":2328,"Ġcart":2329,"Ġpush":2330,"In":2331,"ale":2332,"Ġser":2333,"Ġrec":2334,"Ġwhenever":2335,"arge":2336,"Ġval":2337,"Ġcorner":2338,"unk":2339,"Ġwom":2340,"Ġchocol":2341,"Ġcalm":2342,"Ġsplas":2343,"Ġwoman":2344,"Ġban":2345,"ĠHow":2346,"ÅĵI":2347,"Ġneighbor":2348,"Just":2349,"Ġlast":2350,"ĠGo":2351,"Ġtool":2352,"Ġmach":2353,"ĠSometimes":2354,"Molly":2355,"Ġblew":2356,"Ġfixed":2357,"read":2358,"Ġring":2359,"Ġfighting":2360,"Ġfinish":2361,"Ġwaiting":2362,"Ġwave":2363,"Ġspicy":2364,"Ġforgive":2365,"Ġtid":2366,"ert":2367,"bbles":2368,"ĠAl":2369,"Ġfeet":2370,"Ġminut":2371,"Ġspread":2372,"Ġdelight":2373,"Ġash":2374,"Ġtaste":2375,"Ġeventually":2376,"Ġteeth":2377,"Ġlive":2378,"Ġembarrassed":2379,"Ġpour":2380,"Ġhorse":2381,"Ġtomorrow":2382,"Soon":2383,"Ġremind":2384,"Ġbell":2385,"Mum":2386,"Ġscar":2387,"Ġcookie":2388,"Ġsmooth":2389,"Ġrocket":2390,"ones":2391,"Ġant":2392,"Ġshy":2393,"Ġcloth":2394,"Ġfold":2395,"ĠEmily":2396,"Ġchocolate":2397,"mo":2398,"Ġtries":2399,"ĠCh":2400,"Ġcolour":2401,"Ġstep":2402,"oph":2403,"old":2404,"Ġlarge":2405,"Ġtea":2406,"Ġsongs":2407,"Ġneckl":2408,"Ġhiding":2409,"Ġbanan":2410,"ĠJenny":2411,"Ġkitten":2412,"Ġpaw":2413,"Ġspray":2414,"Ġspe":2415,"urse":2416,"Ġrob":2417,"Ġhum":2418,"Ġpool":2419,"Ġshirt":2420,"Ġple":2421,"Ġemp":2422,"Ġwash":2423,"Ġcann":2424,"Ġpizz":2425,"Ġempty":2426,"nny":2427,"ungle":2428,"Ġvillage":2429,"Ġcreative":2430,"lebr":2431,"Ġjungle":2432,"Ġgrew":2433,"Ġbugs":2434,"Ġtightly":2435,"Ġtidy":2436,"als":2437,"getable":2438,"Ġcannot":2439,"ĠSt":2440,"dge":2441,"Ġcoo":2442,"Ġknocked":2443,"Ġvegetable":2444,"Ġwhistle":2445,"Ġsol":2446,"Ġrep":2447,"Ġcelebr":2448,"umpy":2449,"ato":2450,"hnny":2451,"ĠTV":2452,"den":2453,"Ġchick":2454,"My":2455,"Ġrude":2456,"Ġwore":2457,"Ġtrust":2458,"Ġhar":2459,"ĠSome":2460,"airs":2461,"Ġbarked":2462,"Ġrobot":2463,"Ġwip":2464,"Ġpeaceful":2465,"Now":2466,"Ġsparkly":2467,"Ġpuddle":2468,"Ġnecklace":2469,"ground":2470,"Ġhears":2471,"Ġchased":2472,"ighed":2473,"ĠEverywhere":2474,"Ġpizza":2475,"ĠPlease":2476,"Ġstret":2477,"Ġsel":2478,"Ġstir":2479,"ĠJust":2480,"Ġmeant":2481,"ĠLe":2482,"ned":2483,"Ġbal":2484,"Ġmoon":2485,"Ġmaybe":2486,"Ġgun":2487,"Ġstra":2488,"Ġpuzzle":2489,"Ġhidden":2490,"Ġpin":2491,"Ġnet":2492,"Ġsave":2493,"ian":2494,"Ġtreats":2495,"Ġgen":2496,"Ġmeadow":2497,"Ġcarrots":2498,"ĠOn":2499,"inted":2500,"lower":2501,"era":2502,"box":2503,"Ġmot":2504,"Ġsticks":2505,"Ġsnacks":2506,"dle":2507,"Ġcarried":2508,"Ġmissed":2509,"ĠTheir":2510,"gly":2511,"ustr":2512,"Ġforward":2513,"ult":2514,"Ġseed":2515,"Ġflut":2516,"Ġtells":2517,"Ġsplash":2518,"Ġav":2519,"Ġgroup":2520,"Ġsour":2521,"Ġbat":2522,"Ġcrab":2523,"Ġprince":2524,"Ġmachine":2525,"Ġshelf":2526,"Ġber":2527,"ĠJake":2528,"Ġclear":2529,"Ġugly":2530,"Ġstring":2531,"Ġselfish":2532,"Ġjumping":2533,"Ġdisappo":2534,"Ġ'":2535,"ird":2536,"Dad":2537,"ĠTeddy":2538,"aul":2539,"Ġgold":2540,"iger":2541,"Ġlem":2542,"elly":2543,"kin":2544,"Ġfrustr":2545,"Ġleaf":2546,"Ġburn":2547,"Ġknowing":2548,"Ġgray":2549,"Ġstood":2550,"ĠLisa":2551,"ying":2552,"Ġroar":2553,"Ġyelled":2554,"Ġpolice":2555,"Ġlanded":2556,"Ġlegs":2557,"Please":2558,"itter":2559,"Ġsharing":2560,"most":2561,"Ġhonest":2562,"Ġpir":2563,"Ġcirc":2564,"ator":2565,"Ġstone":2566,"eterm":2567,"hin":2568,"Ġwhis":2569,"Ġblow":2570,"Ġdeterm":2571,"ĠWhy":2572,"ĠMum":2573,"ĠTogether":2574,"Ġstanding":2575,"Ġplate":2576,"Ġdrew":2577,"Ġbreath":2578,"Ġalmost":2579,"Ġgar":2580,"Ġnods":2581,"vous":2582,"Ġfancy":2583,"Ġfrustrated":2584,"Ġnumber":2585,"Ġseek":2586,"Stop":2587,"Ġdisappointed":2588,"Ġtest":2589,"Ġsleepy":2590,"To":2591,"orry":2592,"iff":2593,"Ġthese":2594,"ital":2595,"Mama":2596,"aking":2597,"There":2598,"uce":2599,"Ġfear":2600,"Ġscream":2601,"Ġpowerful":2602,"Ġmysterious":2603,"Ġfeed":2604,"Ġpillow":2605,"Be":2606,"ser":2607,"Ġhours":2608,"Ġgener":2609,"Ġpolite":2610,"ĠBr":2611,"ĠAnn":2612,"Ġhosp":2613,"Ġfil":2614,"Ġcro":2615,"pack":2616,"Ġhospital":2617,"Ġline":2618,"Ġgas":2619,"Ġjew":2620,"Ġmedic":2621,"Ġashamed":2622,"ffe":2623,"Ġplants":2624,"Ġcries":2625,"Ġdecor":2626,"ĠEven":2627,"ecially":2628,"Ġner":2629,"ote":2630,"ets":2631,"Ġreg":2632,"ĠPeter":2633,"Ġreturned":2634,"issors":2635,"ual":2636,"izzy":2637,"Ġunderstood":2638,"Ġsheep":2639,"Ġscissors":2640,"Ġmedicine":2641,"Ġnervous":2642,"Ġwhisp":2643,"ĠDon":2644,"Ġtwirl":2645,"ensive":2646,"Ġexpensive":2647,"Ġspoil":2648,"pecially":2649,"ony":2650,"Ġshore":2651,"Ġpacked":2652,"Ġespecially":2653,"sist":2654,"Ġscarf":2655,"osaur":2656,"Ġbored":2657,"ĠBe":2658,"Ġpay":2659,"Ġdancing":2660,"Ġpassed":2661,"Ġsandwich":2662,"Ġvegetables":2663,"Ġnut":2664,"Ġtaught":2665,"Ġvan":2666,"Ġgarage":2667,"Ġsaved":2668,"Ġpoor":2669,"Ġgrumpy":2670,"usie":2671,"Ġcloset":2672,"light":2673,"ina":2674,"Ġpri":2675,"Ġbecome":2676,"Ġhel":2677,"Ġmummy":2678,"Ġruined":2679,"Ġscr":2680,"Ġtaken":2681,"Ġfinger":2682,"Ġgate":2683,"'d":2684,"Ġdrum":2685,"Ġcomfortable":2686,"Ġfill":2687,"Ġmessy":2688,"iddle":2689,"Ġcand":2690,"ĠRex":2691,"Ġdinosaur":2692,"Ġsold":2693,"Ġbedroom":2694,"Ġeasy":2695,"Ġones":2696,"Ġexam":2697,"Ġgenerous":2698,"oop":2699,"Ġpleased":2700,"Ġasking":2701,"ano":2702,"Ġclass":2703,"Ġsuccess":2704,"ym":2705,"Ġwis":2706,"Ġyourself":2707,"Jane":2708,"imp":2709,"Ġworking":2710,"Ġdetermined":2711,"Ġship":2712,"Ġpray":2713,"Ġglue":2714,"Ġfig":2715,"Ġhopping":2716,"Ġgiggled":2717,"Ġsailed":2718,"Ġboring":2719,"Ġstuff":2720,"Ġballs":2721,"ĠLeo":2722,"Ġmotor":2723,"Ġcri":2724,"Ġwagged":2725,"Ġvase":2726,"Ġglass":2727,"Jimmy":2728,"Ġkissed":2729,"Where":2730,"Ġhur":2731,"Ġmov":2732,"ĠKitty":2733,"Ġmistake":2734,"Ġoften":2735,"ĠOK":2736,"Ġsighed":2737,"ates":2738,"Ġdest":2739,"Ġplayground":2740,"Ġexcite":2741,"Ġesc":2742,"Ġminutes":2743,"erp":2744,"Ġtrue":2745,"Ġwheel":2746,"Ġlead":2747,"Ġbrush":2748,"ĠJohnny":2749,"Ġchest":2750,"Ġchew":2751,"Ġanswered":2752,"Ġwaves":2753,"Ġweak":2754,"Ġclown":2755,"Ġboys":2756,"Ġgathered":2757,"iness":2758,"Ġfake":2759,"Ġspend":2760,"Ġdrop":2761,"Ġthankful":2762,"illi":2763,"Ġtears":2764,"Ġrad":2765,"ĠZ":2766,"mb":2767,"Ġtick":2768,"Ġmiddle":2769,"selves":2770,"Ġcontent":2771,"Sarah":2772,"Ġhang":2773,"Ġjelly":2774,"Ġteam":2775,"apped":2776,"ots":2777,"Ġeld":2778,"Ġgets":2779,"ushed":2780,"Ġexcitement":2781,"Ġcap":2782,"Ġquestions":2783,"Ġlemon":2784,"Ġeggs":2785,"Ġlock":2786,"Who":2787,"Ġtent":2788,"arl":2789,"Ġflag":2790,"Ġskipped":2791,"Ġfridge":2792,"ipp":2793,"Ġchange":2794,"Ġsmelly":2795,"Ġwrote":2796,"Ġrid":2797,"Ġdrawing":2798,"Ġlit":2799,"Ġrelax":2800,"Ġadd":2801,"llie":2802,"Ġfruits":2803,"Ġdiscovered":2804,"oof":2805,"aged":2806,"Sorry":2807,"Ġknight":2808,"Ġbridge":2809,"Ġsight":2810,"ete":2811,"ĠBl":2812,"Ġbathroom":2813,"Their":2814,"Ġboard":2815,"Ġmatch":2816,"Ġmir":2817,"Ġdogs":2818,"Are":2819,"Ġknife":2820,"Ġshows":2821,"Ġclap":2822,"Ġlazy":2823,"Ġfluffy":2824,"Ġqueen":2825,"Ġwolf":2826,"Ġtag":2827,"Ġsil":2828,"Ġcovered":2829,"ĠBrown":2830,"que":2831,"Ġcheck":2832,"Ġsweetie":2833,"Jill":2834,"Ġfamous":2835,"Ġmighty":2836,"ork":2837,"cept":2838,"Ġbake":2839,"Ġord":2840,"Ġpicks":2841,"Ġdrank":2842,"Ġdistance":2843,"Ġmic":2844,"Ġang":2845,"Ġnod":2846,"ella":2847,"Ġdisappeared":2848,"ipper":2849,"Ġlying":2850,"ĠAt":2851,"Ġdeer":2852,"ror":2853,"Ġwander":2854,"Ġboss":2855,"Ġcaterp":2856,"Ġtowel":2857,"Ġcrown":2858,"Ġcaterpill":2859,"Me":2860,"usual":2861,"Ġunusual":2862,"Ġwalks":2863,"Ġfre":2864,"Ġmap":2865,"Ġsoap":2866,"Ġcalling":2867,"Ġeager":2868,"ti":2869,"Ġbone":2870,"Ġind":2871,"Ġfis":2872,"Ġmoving":2873,"Ġshoot":2874,"Ġed":2875,"Ġsell":2876,"Ġdecide":2877,"Ġelderly":2878,"obby":2879,"ĠIf":2880,"Ġlose":2881,"Ġstones":2882,"ination":2883,"Ġborrow":2884,"Ġcover":2885,"Ġdig":2886,"Ġdish":2887,"elp":2888,"Ġcleaned":2889,"body":2890,"Ġsplashed":2891,"ating":2892,"Sally":2893,"Ġweek":2894,"Ġglow":2895,"Ġcrawl":2896,"Ġcage":2897,"arth":2898,"ĠEnd":2899,"Ġcher":2900,"imed":2901,"work":2902,"umbled":2903,"Ġincred":2904,"Ġhunt":2905,"Ġfeathers":2906,"Ġoffered":2907,"Ġbanana":2908,"asing":2909,"Ġcaterpillar":2910,"Ġyours":2911,"Ġkindness":2912,"Ġfather":2913,"alous":2914,"Ġcoins":2915,"Ġeye":2916,"Ġjuicy":2917,"Ġbrilli":2918,"Ġjealous":2919,"Ġbranches":2920,"Ġtape":2921,"Ġcam":2922,"Ġcost":2923,"Ġbottom":2924,"Ġorganized":2925,"Ġmirror":2926,"Ġlamp":2927,"Ġbody":2928,"Ġbrilliant":2929,"Ġtoug":2930,"Ġrare":2931,"fast":2932,"Ġtie":2933,"Ġcraw":2934,"Ġhorn":2935,"Ġthick":2936,"Ġcrawled":2937,"Ġdepend":2938,"Ġhurts":2939,"Ġtunn":2940,"port":2941,"ĠNo":2942,"enny":2943,"Ġmeasure":2944,"Ġcolourful":2945,"Ġbalance":2946,"Help":2947,"Ġbubbles":2948,"Ġbreakfast":2949,"Ġimpressed":2950,"Ġlicked":2951,"Ġext":2952,"Ġhero":2953,"ugar":2954,"Ġtwist":2955,"olog":2956,"Ġincredible":2957,"Ġtiger":2958,"Ġfool":2959,"Ġrough":2960,"Ġjoke":2961,"Ġcross":2962,"Ġonce":2963,"Ġtrucks":2964,"Ġwagon":2965,"Ġfine":2966,"Ġlibr":2967,"Ġboxes":2968,"Ġtough":2969,"Ġadventur":2970,"Ġsmoke":2971,"Ġhappening":2972,"Ġapolog":2973,"appy":2974,"bin":2975,"Ġmanaged":2976,"Ġcabin":2977,"Ġsugar":2978,"ilt":2979,"amond":2980,"?\".":2981,"Ġflash":2982,"Ġrealised":2983,"Ġfavour":2984,"Ġbitter":2985,"Ġtrunk":2986,"Ġadventurous":2987,"How":2988,"Ġwrapped":2989,"hip":2990,"rag":2991,"Ġnoisy":2992,"Ġchase":2993,"Ġjog":2994,"Ġfalls":2995,"Ġflute":2996,"ĠBlue":2997,"Mummy":2998,"Ġaw":2999,"Ġadded":3000,"Ġsugg":3001,"Ġfavourite":3002,"Ġsuggest":3003,"Sp":3004,"Ġdizzy":3005,"ĠSusie":3006,"Ġmelt":3007,"Ġok":3008,"Ġdiamond":3009,"Ġrecord":3010,"Ġharm":3011,"Ġmixed":3012,"Ġcircles":3013,"Ġfoolish":3014,"Al":3015,"Ġsunf":3016,"Ġmarket":3017,"Ġpump":3018,"Ġaccept":3019,"lies":3020,"Ġwand":3021,"Ġlog":3022,"Ġjam":3023,"ured":3024,"Ġguess":3025,"Ġsafely":3026,"land":3027,"yal":3028,"keep":3029,"Ġlouder":3030,"Ġextra":3031,"ory":3032,"Ġword":3033,"Ġneeds":3034,"Ġarg":3035,"Ġlifted":3036,"edient":3037,"ery":3038,"ately":3039,"ĠMark":3040,"Ġcheerful":3041,"Ġturt":3042,"ĠSn":3043,"Ġshark":3044,"Ġjack":3045,"Ġmagn":3046,"Ġdependable":3047,"Ġter":3048,"Ġpil":3049,"Ġears":3050,"Ġpointing":3051,"uggled":3052,"Ġdreamed":3053,"Ġwrap":3054,"Ġberries":3055,"Ġmoms":3056,"Ġagainst":3057,"Ġgrandpa":3058,"Ġgrown":3059,"Ġjewel":3060,"ira":3061,"Ġpee":3062,"Ġgiving":3063,"Ġfigure":3064,"Sue":3065,"Ġham":3066,"Ġgrace":3067,"Ġweal":3068,"Ġfrown":3069,"Well":3070,"Ġswan":3071,"Ġbags":3072,"Ġmovie":3073,"Ġtwig":3074,"Ġdreams":3075,"Ġballoons":3076,"Ġbelonged":3077,"ique":3078,"head":3079,"omed":3080,"Ġlearning":3081,"Ġstronger":3082,"laimed":3083,"Gra":3084,"Ġdolp":3085,"Ġedge":3086,"Ġexclaimed":3087,"Ġyarn":3088,"Ġsword":3089,"Ġslipped":3090,"Ġunique":3091,"Ġsearch":3092,"Ġloyal":3093,"Ġchoose":3094,"emo":3095,"Ġhats":3096,"Ġshake":3097,"rage":3098,"Ġloudly":3099,"Ġenjoying":3100,"fic":3101,"oppy":3102,"Ġhappiness":3103,"Ġspun":3104,"iable":3105,"Ġobedient":3106,"Ġtools":3107,"anut":3108,"anged":3109,"Ġmarble":3110,"ĠMrs":3111,"ready":3112,"Ġsquee":3113,"Ġlaughs":3114,"Ġrich":3115,"Ġwalls":3116,"Ġlean":3117,"ĠElla":3118,"Ġtele":3119,"Ġreliable":3120,"Ġcamera":3121,"und":3122,"Ġfour":3123,"ĠFred":3124,"ext":3125,"iv":3126,"ature":3127,"Ġalready":3128,"Ġmod":3129,"Ġcleaning":3130,"Ġunl":3131,"Ġdiffic":3132,"Ġangel":3133,"Ġterri":3134,"oot":3135,"ĠMy":3136,"Ġclay":3137,"Ġbull":3138,"Ġmeans":3139,"Ġuseful":3140,"Ġcrayon":3141,"Billy":3142,"Ġgoat":3143,"ipe":3144,"Ġpainting":3145,"Ġbuttons":3146,"gy":3147,"ention":3148,"Here":3149,"Ġbarn":3150,"ages":3151,"Ġusing":3152,"Ġcompet":3153,"Ġstraw":3154,"ĠLittle":3155,"umbers":3156,"Ġbloom":3157,"Ġstubb":3158,"Ġindepend":3159,"Ġtunnel":3160,"Ġturtle":3161,"Ġtank":3162,"Ġhelps":3163,"Ġscare":3164,"Ġcircle":3165,"Ġdifficult":3166,"cil":3167,"Ġnorm":3168,"Ġthoughtful":3169,"Joe":3170,"Ġpencil":3171,"keeper":3172,"Ġthu":3173,"Ġfier":3174,"Ġfright":3175,"Ġbushes":3176,"ĠTweety":3177,"Ġpeanut":3178,"Ġpainted":3179,"Ġnosy":3180,"Ġsounded":3181,"zed":3182,"Ġtimes":3183,"Ġguit":3184,"Ġstream":3185,"Ġgem":3186,"Ġwhale":3187,"Ġoffice":3188,"Ġcounted":3189,"Ġdove":3190,"Ġref":3191,"Ġskin":3192,"Ġbald":3193,"Ġparrot":3194,"Ġliz":3195,"Ġcompetit":3196,"Ġstubborn":3197,"Amy":3198,"Ġbirdie":3199,"Ġfierce":3200,"wards":3201,"Ġtoast":3202,"ado":3203,"ĠBu":3204,"Ġknows":3205,"ye":3206,"Ġrug":3207,"Ġisland":3208,"ĠWhenever":3209,"Ġinvited":3210,"Ġwealthy":3211,"Ġnormal":3212,"Ġcop":3213,"Ġsaying":3214,"Ġswe":3215,"Ġexplored":3216,"Ġjoined":3217,"cient":3218,"ject":3219,"Ġfrag":3220,"Ġicy":3221,"orge":3222,"Ġsoar":3223,"Ġweird":3224,"Ġnotice":3225,"Ġcrack":3226,"Ġindependent":3227,"Ġnumbers":3228,"Ġsunflower":3229,"Ġpost":3230,"Ġmole":3231,"Ġbrothers":3232,"Ġdesign":3233,"Ġpirate":3234,"inary":3235,"erry":3236,"Ġgrap":3237,"Ġbossy":3238,"Ġfat":3239,"Ġsmaller":3240,"Ġharder":3241,"ouses":3242,"Ġbuilt":3243,"Ġspoiled":3244,"ines":3245,"Ġstairs":3246,"Ġancient":3247,"Ġseem":3248,"Ġprep":3249,"ĠToday":3250,"Ġguitar":3251,"Ġstumbled":3252,"Ġlights":3253,"Ġmarch":3254,"Ġchicken":3255,"Ġfountain":3256,"Ġsauce":3257,"Ġstri":3258,"Ġrode":3259,"Ġenorm":3260,"Ġpicking":3261,"Ġbeet":3262,"Ġcact":3263,"Ġvalu":3264,"Ġescape":3265,"Ġfragile":3266,"Ġenormous":3267,"Ġhouses":3268,"Ġresc":3269,"Ġpoured":3270,"Ġseeds":3271,"Ġfresh":3272,"Ġsuit":3273,"Ġchar":3274,"ĠPete":3275,"Ġhose":3276,"Ġenvel":3277,"ÅĵLet":3278,"Ġreminded":3279,"ither":3280,"Ġpow":3281,"Ġmem":3282,"upid":3283,"Ġbump":3284,"Ġcudd":3285,"irp":3286,"Ġfork":3287,"Ġtrump":3288,"Ġproudly":3289,"Ġkinds":3290,"Ġbounce":3291,"Ġpractice":3292,"Ġways":3293,"Ġpenny":3294,"Ġcity":3295,"Ġpepper":3296,"Ġsalad":3297,"ĠAlice":3298,"Ġcostum":3299,"Spot":3300,"Ġfrightened":3301,"aid":3302,"ache":3303,"Ġsearching":3304,"Ġchose":3305,"Ġfingers":3306,"Ġshells":3307,"Ġadmired":3308,"Ġsolve":3309,"Ġcactus":3310,"Ġtummy":3311,"Ġwake":3312,"Ġhalf":3313,"Ġthirst":3314,"Ġroof":3315,"Ġshowing":3316,"ola":3317,"Ġdelighted":3318,"na":3319,"Ġcone":3320,"Ġdull":3321,"anger":3322,"dom":3323,"Ġnurse":3324,"alk":3325,"arsh":3326,"Ġboats":3327,"Ġbarber":3328,"eorge":3329,"Ġbeak":3330,"Ġstage":3331,"Ġstupid":3332,"Ġexcitedly":3333,"Ġabove":3334,"berry":3335,"Ġstudy":3336,"Ġbatter":3337,"Ġspace":3338,"Ġsuggested":3339,"Ġlizard":3340,"Ġshone":3341,"Ġcompass":3342,"Ġregular":3343,"Ġflashlight":3344,"vice":3345,"Ġhoop":3346,"Ġcere":3347,"Ġlocked":3348,"Ġspilled":3349,"Ġshape":3350,"Ġattic":3351,"Ġterrible":3352,"Ġtooth":3353,"ĠNemo":3354,"Ġvaluable":3355,"Ġtrumpet":3356,"time":3357,"arry":3358,"Ġarrow":3359,"ress":3360,"Ġpant":3361,"Ġearth":3362,"Ġyet":3363,"ĠBella":3364,"illie":3365,"Ġcheap":3366,"ĠBobo":3367,"Ġdesk":3368,"Ġkicked":3369,"Ġserious":3370,"Ġsuccessful":3371,"Ġthirsty":3372,"Ġlow":3373,"ĠDave":3374,"Em":3375,"het":3376,"inal":3377,"Ġclum":3378,"Ġlab":3379,"Ġscrat":3380,"Ġorig":3381,"com":3382,"Ġow":3383,"Ġrat":3384,"Ġstove":3385,"corn":3386,"Ġavo":3387,"Ġenvelope":3388,"Ġwitch":3389,"ĠMummy":3390,"Ġthemselves":3391,"Ġimpress":3392,"Ġer":3393,"Ġson":3394,"ĠWhile":3395,"aghet":3396,"Ġcomb":3397,"Ġbrightly":3398,"Ġstops":3399,"Ġthunder":3400,"aghetti":3401,"Ġhay":3402,"Ġbees":3403,"Ġstamp":3404,"iew":3405,"Ġlaw":3406,"Ġraced":3407,"Ġdreaming":3408,"Ġscreen":3409,"ĠMar":3410,"Ġcareless":3411,"Ġsniff":3412,"Ġoriginal":3413,"Ġwashed":3414,"Ġspaghetti":3415,"ĠYour":3416,"Ġchanged":3417,"Ġview":3418,"Ġwiped":3419,"ĠU":3420,"uth":3421,"Ġending":3422,"Ġstickers":3423,"Ġhelm":3424,"Ġrushed":3425,"ĠDucky":3426,"Ġdelicate":3427,"Ġwarned":3428,"Ġbeetle":3429,"Ġflex":3430,"Ġmis":3431,"gest":3432,"ience":3433,"isk":3434,"Ġthose":3435,"Ġyog":3436,"Ġcarp":3437,"berries":3438,"Ġleaving":3439,"Ġsteal":3440,"Ġpersist":3441,"Ġcompassion":3442,"Ġclumsy":3443,"Ġtor":3444,"Ġbiggest":3445,"!\".":3446,"Ġtravel":3447,"Ġdead":3448,"oomy":3449,"Ġpopcorn":3450,"Ġdough":3451,"Ġbean":3452,"Ġfinding":3453,"Ġenc":3454,"Ġpumpkin":3455,"Ġing":3456,"ision":3457,"Ġsne":3458,"Ġtomato":3459,"Ġdiscover":3460,"Ġwire":3461,"anny":3462,"Ġlibrary":3463,"While":3464,"uring":3465,"robe":3466,"Ġgrand":3467,"Ġsnee":3468,"Ġdeliver":3469,"Ġcomplet":3470,"redient":3471,"Ġgraceful":3472,"Ġingredient":3473,"Ġmeal":3474,"Ġsorts":3475,"Ġunk":3476,"Ġtelling":3477,"Ġcereal":3478,"Ġknock":3479,"Ġuncle":3480,"Ġimagined":3481,"Ġearly":3482,"Ġpeeked":3483,"Ġtask":3484,"âĤ¬âĢ":3485,"Ġtrap":3486,"Ġhairy":3487,"Ġmissing":3488,"Ġcounting":3489,"Ġingredients":3490,"Ġadvice":3491,"Ġpup":3492,"uper":3493,"Ġjacket":3494,"Ġmel":3495,"Ġshiver":3496,"Ġzip":3497,"Ġhumble":3498,"Ġforth":3499,"Ġstranger":3500,"Ġsquare":3501,"Ġdoesn":3502,"Ġpale":3503,"Ġguard":3504,"Ġdestro":3505,"ĠBobby":3506,"Ġflexible":3507,"Ġsudden":3508,"Ġhipp":3509,"ilty":3510,"Ġplayful":3511,"Ġdriving":3512,"Ġguilty":3513,"Ġpige":3514,"Ġaunt":3515,"Ġquestion":3516,"Ġthinking":3517,"Ġwhispered":3518,"Ġimpressive":3519,"Ġcards":3520,"Ġnicely":3521,"Ġjolly":3522,"Ġcreate":3523,"Ġopens":3524,"Ġcollar":3525,"Ġcarrying":3526,"Ġslides":3527,"Ġspeed":3528,"nown":3529,"Ġcur":3530,"Ġallowed":3531,"cod":3532,"Ġtwirled":3533,"Ġhandle":3534,"Ġprint":3535,"Ġsparkled":3536,"Ġhunter":3537,"illa":3538,"Ġbrace":3539,"Ġsticker":3540,"Ġpopular":3541,"ud":3542,"Ġcush":3543,"Ġumb":3544,"ement":3545,"Ġrub":3546,"host":3547,"Ġumbre":3548,"fa":3549,"Ġtap":3550,"Ġtied":3551,"Ġsink":3552,"Ġanx":3553,"Ġenv":3554,"Ġrubb":3555,"ations":3556,"Ġbase":3557,"Ġdisg":3558,"Ġrubbed":3559,"comfort":3560,"bled":3561,"Ġfriendship":3562,"Ġcarpet":3563,"tter":3564,"Ġuncomfort":3565,"Ġcooking":3566,"Ġcharming":3567,"Ġpersistent":3568,"Ġdisgust":3569,"Ġuncomfortable":3570,"arian":3571,"Ġgum":3572,"Ġgira":3573,"Ġshocked":3574,"ĠRose":3575,"Ġholds":3576,"awn":3577,"Ġwing":3578,"ream":3579,"Ġghost":3580,"Ġrefused":3581,"ellig":3582,"ĠRed":3583,"Ġperm":3584,"Ġmetal":3585,"Ġanxious":3586,"Ġintellig":3587,"Ġbutterflies":3588,"Ġdolphin":3589,"Ġdust":3590,"Ġscatter":3591,"Ġsett":3592,"Ġcrocod":3593,"Ġgasped":3594,"Ġunknown":3595,"Ġpatter":3596,"Ġscoot":3597,"Ġeng":3598,"Ġcomput":3599,"Ġpatch":3600,"Ġpants":3601,"loo":3602,"aroo":3603,"Ġneat":3604,"ugged":3605,"angaroo":3606,"Ġspinning":3607,"Ġnature":3608,"Ġshel":3609,"Ġkangaroo":3610,"Ġchasing":3611,"Ġcelebrate":3612,"Ġpattern":3613,"Ġled":3614,"Ġmoder":3615,"Ġpasta":3616,"Ġwheels":3617,"Ġnames":3618,"Ġtruth":3619,"Ġordinary":3620,"Ġhammer":3621,"ÅĵLetÃ¢":3622,"Ġhippo":3623,"Ġmask":3624,"Ġsurf":3625,"Ġtorn":3626,"Ġencou":3627,"Ow":3628,"Ġresist":3629,"Ġcoco":3630,"Ġimpat":3631,"ĠGrandpa":3632,"Ġcocoa":3633,"See":3634,"Ġgoose":3635,"Ġstat":3636,"ĠAlex":3637,"ÅĵIt":3638,"Ġphot":3639,"ĠEllie":3640,"Ġacorn":3641,"uddy":3642,"Ġperform":3643,"eer":3644,"Ġbent":3645,"Ġpand":3646,"Ġotter":3647,"ĠKim":3648,"Ġgrowing":3649,"Ġimpatient":3650,"Ġmath":3651,"iches":3652,"ĠWh":3653,"Ġskip":3654,"Ġsnuggled":3655,"Ġcrazy":3656,"Ġsleeping":3657,"ffee":3658,"Ġprize":3659,"Ġharmless":3660,"Ġmodern":3661,"ray":3662,"Ġoat":3663,"orant":3664,"Ġshine":3665,"Ġrece":3666,"Ġscale":3667,"ÅĵWhat":3668,"Ġfireman":3669,"Ġcrane":3670,"Ġrestaur":3671,"Ġmagnet":3672,"Ġrestaurant":3673,"Ġbeauty":3674,"Ġtrash":3675,"Ġwindows":3676,"Ġsplit":3677,"Ġattract":3678,"Ġpotato":3679,"Ġdestroy":3680,"ĠHere":3681,"Ġreind":3682,"ĠFr":3683,"Ġhanded":3684,"Ġunpack":3685,"Ġshoe":3686,"Ġplaced":3687,"Ġintelligent":3688,"ĠMike":3689,"ĠLook":3690,"Ġspoke":3691,"Ġcricket":3692,"Go":3693,"llip":3694,"Ġcompassionate":3695,"Ġdisgusting":3696,"llipop":3697,"cut":3698,"Ġsofa":3699,"Ġumbrella":3700,"Ġtem":3701,"Ġahead":3702,"Ġload":3703,"Ġlollipop":3704,"Ġstarts":3705,"noon":3706,"Ġsuper":3707,"Ġafternoon":3708,"Ġdrawer":3709,"Ġwheat":3710,"Ġdistant":3711,"Ġsandwiches":3712,"Ġcandle":3713,"Ġwaff":3714,"ĠSm":3715,"Ġyawn":3716,"Ġignorant":3717,"ince":3718,"Ġchance":3719,"ĠFin":3720,"ĠCl":3721,"ips":3722,"aches":3723,"Ġtriang":3724,"ĠSnow":3725,"Ġbracelet":3726,"Ġreindeer":3727,"ikes":3728,"oe":3729,"Ġdug":3730,"Ġhedge":3731,"Ġrules":3732,"Ġcountry":3733,"Ġspring":3734,"ophone":3735,"Ġpigeon":3736,"aby":3737,"Ġhook":3738,"Ġshield":3739,"Ġreco":3740,"Ġflour":3741,"Ġtrop":3742,"Ġclock":3743,"Ġbin":3744,"Ġpurse":3745,"Ġshut":3746,"Ġcoffee":3747,"ĠcouldnÃ¢":3748,"Ġsupport":3749,"Ġrestless":3750,"Ġhung":3751,"Ġcupboard":3752,"Ġtire":3753,"Ġharsh":3754,"Ġcord":3755,"Ġol":3756,"Ġjug":3757,"Ġorder":3758,"Ġgifted":3759,"Ġmailbox":3760,"ĠTweetie":3761,"Ġtrophy":3762,"Ġsym":3763,"erable":3764,"Ġmay":3765,"ict":3766,"used":3767,"Ġjumps":3768,"ophie":3769,"Ġnote":3770,"Ġsadly":3771,"Ġcats":3772,"lcano":3773,"Ġshrimp":3774,"Ġsilver":3775,"Ġmiserable":3776,"af":3777,"Ġsend":3778,"Ġshadow":3779,"ices":3780,"Ġmush":3781,"Ġpretending":3782,"cycle":3783,"Ġfilm":3784,"Ġcrocodile":3785,"gu":3786,"Ġax":3787,"Ġitself":3788,"Ġleop":3789,"aser":3790,"ĠPolly":3791,"gging":3792,"Ġengine":3793,"Yay":3794,"cu":3795,"ibb":3796,"shed":3797,"Ġcamp":3798,"bol":3799,"Ġfurther":3800,"Ġcourage":3801,"Ġpracticed":3802,"Ġhurry":3803,"Ġmelon":3804,"Ġmuff":3805,"Ġanywhere":3806,"Ġimpro":3807,"Ġobject":3808,"Ġcomputer":3809,"Ġsymbol":3810,"gn":3811,"Ġbri":3812,"Ġfu":3813,"Ġmill":3814,"Ġvine":3815,"uct":3816,"Ġtrick":3817,"Ġcreatures":3818,"Ġgoal":3819,"Ġcompl":3820,"ÅĵYes":3821,"Ġtowers":3822,"Ġjeep":3823,"Ġenth":3824,"aled":3825,"Ġrose":3826,"Ġpainter":3827,"Ġrepe":3828,"Ġrice":3829,"Ġstack":3830,"Ġcooler":3831,"Ġreading":3832,"Alice":3833,"Ġenvious":3834,"Ġpony":3835,"ĠSandy":3836,"Ġstation":3837,"Ġparade":3838,"Ġwishes":3839,"az":3840,"Ġneedle":3841,"Ġcryst":3842,"Ġforgave":3843,"Ġcartoon":3844,"iron":3845,"stri":3846,"Ġkay":3847,"ĠAre":3848,"ÅĵThat":3849,"ĠToby":3850,"Ġtreasures":3851,"Ġstretched":3852,"Ġaxe":3853,"Ġenthus":3854,"Ġreward":3855,"Ġnowhere":3856,"Ġhelmet":3857,"Ġattractive":3858,"ric":3859,"Ġjet":3860,"Ġhelpless":3861,"Ġlaser":3862,"Ġolder":3863,"ĠGive":3864,"Ġbrighter":3865,"Ġsecond":3866,"Ġtroubled":3867,"Ġletters":3868,"Ġsweater":3869,"Ġoy":3870,"Ġscold":3871,"ĠEventually":3872,"Ġmessage":3873,"Ġpastry":3874,"Ġfootball":3875,"cream":3876,"Ġten":3877,"Ġbadly":3878,"Ġtrack":3879,"Ġpackage":3880,"Ġvalue":3881,"ĠBrownie":3882,"Ġcompetitive":3883,"Ġcushion":3884,"Ġscooter":3885,"Ġpanda":3886,"Ġpilot":3887,"Ġrecogn":3888,"Ġmushroom":3889,"Ġtheater":3890,"Ġpor":3891,"ĠTr":3892,"Ġsock":3893,"Ġalert":3894,"ĠWhere":3895,"Ġpressed":3896,"Ġgloomy":3897,"Ġtricks":3898,"Ġvisited":3899,"Ġgiggle":3900,"ebra":3901,"Ġsalt":3902,"Ġfearful":3903,"Ġmicr":3904,"Ġhall":3905,"htub":3906,"Ġspell":3907,"Ġanyway":3908,"ĠPe":3909,"Ġbandage":3910,"Ġhuman":3911,"orable":3912,"Ġbeep":3913,"Ġswitch":3914,"Ġtear":3915,"ĠPaul":3916,"Ġshouts":3917,"Ġdeaf":3918,"Ġadmire":3919,"Ġbathtub":3920,"Ġeraser":3921,"Re":3922,"ef":3923,"kelet":3924,"Ġvolcano":3925,"Ġzebra":3926,"Ġpengu":3927,"Ġbarrel":3928,"Ġcows":3929,"Ġmicrophone":3930,"orilla":3931,"Ġener":3932,"Ġthread":3933,"Ġswinging":3934,"Ġroared":3935,"Ġraven":3936,"Ġbounced":3937,"hino":3938,"Ġsoldier":3939,"Ġavoc":3940,"Ġleopard":3941,"stairs":3942,"Ġstarting":3943,"Ġtray":3944,"Ġstatue":3945,"Ġsize":3946,"Ġhive":3947,"opus":3948,"Ġholes":3949,"Ġstrugg":3950,"ctopus":3951,"ĠPat":3952,"Ġobser":3953,"Ġnuts":3954,"Ġmodest":3955,"iskers":3956,"ĠSmith":3957,"ci":3958,"year":3959,"Ġsent":3960,"ĠLola":3961,"Ġpeach":3962,"Ġadorable":3963,"Benny":3964,"Ġsquash":3965,"ebook":3966,"Ġsteps":3967,"Ġriding":3968,"keleton":3969,"Mary":3970,"Ġoctopus":3971,"ckey":3972,"Ġnotebook":3973,"Ġhockey":3974,"Ġrespectful":3975,"Ġcurt":3976,"Ġlip":3977,"Ġshaking":3978,"Ġbackpack":3979,"Ġchain":3980,"Ġcurtain":3981,"Ġants":3982,"Ġfive":3983,"Ġmop":3984,"Ġgorilla":3985,"Ġquar":3986,"Ġbehave":3987,"Ġhaircut":3988,"Ġwallet":3989,"Ġshopkeeper":3990,"ceros":3991,"Ġfilthy":3992,"strich":3993,"hinoceros":3994,"Ġeither":3995,"Ġur":3996,"ceed":3997,"Ġboots":3998,"Ġpulls":3999,"Ġtripped":4000,"Ġpapers":4001,"Ġstirred":4002,"Give":4003,"If":4004,"Ġpad":4005,"ĠMandy":4006,"Ġnobody":4007,"Ġsunset":4008,"Ġexplain":4009,"Ġchecked":4010,"Ġsandbox":4011,"ccol":4012,"arnt":4013,"Ġlearnt":4014,"Ġsort":4015,"Ġavail":4016,"Ġdecorate":4017,"ccoli":4018,"erc":4019,"Ġmug":4020,"Ġpun":4021,"Ġgolf":4022,"Ġmeas":4023,"ĠGeorge":4024,"ĠRo":4025,"Ġpushing":4026,"Ġmotorcycle":4027,"Ġrescue":4028,"Ġcrystal":4029,"ipping":4030,"Ġrhinoceros":4031,"Ġsomewhere":4032,"Ġvest":4033,"Ġpebble":4034,"Ġart":4035,"Ġlightning":4036,"Ġsailor":4037,"Ġcooked":4038,"Ġpowder":4039,"iest":4040,"Ġstared":4041,"Ġshort":4042,"ief":4043,"Ġclapping":4044,"Ġrolling":4045,"Ġgiraffe":4046,"Ġporch":4047,"Ġskeleton":4048,"Ġdess":4049,"ĠBunny":4050,"Ġvi":4051,"ĠEverything":4052,"Ġjokes":4053,"Ġexper":4054,"ses":4055,"Ġbet":4056,"render":4057,"Ġincl":4058,"Ġunlock":4059,"Ġavailable":4060,"reci":4061,"Ġcomet":4062,"ĠBuddy":4063,"sely":4064,"Ġtrains":4065,"Ġdishes":4066,"Ġpoint":4067,"Ġorganize":4068,"Ġsucceed":4069,"Ġkayak":4070,"par":4071,"Ġhappier":4072,"seum":4073,"Ġexerc":4074,"Ġleash":4075,"ucked":4076,"Ġquite":4077,"enry":4078,"ooped":4079,"Ġstom":4080,"Ġhadn":4081,"Ġsepar":4082,"Ġlaund":4083,"astic":4084,"Ġlistening":4085,"osie":4086,"Ġbarking":4087,"Ġpaws":4088,"Ġfrowned":4089,"hood":4090,"ube":4091,"Ġtur":4092,"Ġtoil":4093,"elery":4094,"Ġmuseum":4095,"Ġcolours":4096,"Ġclimbing":4097,"Ġappreci":4098,"Ġcomplete":4099,"Ġtriangle":4100,"Ġcase":4101,"Ġweather":4102,"Ġseal":4103,"ummer":4104,"Ġpeek":4105,"Ġunh":4106,"Ġzipper":4107,"Ġdessert":4108,"Ġlaundry":4109,"night":4110,"ĠSh":4111,"Ġcane":4112,"Ġbroccoli":4113,"ĠJoey":4114,"Little":4115,"inking":4116,"Ġreef":4117,"ĠMaria":4118,"ĠWhiskers":4119,"ubby":4120,"Ġiron":4121,"Ġputting":4122,"Ġclosely":4123,"Ġpushes":4124,"Ġmonkeys":4125,"Ġsurrender":4126,"Jenny":4127,"cast":4128,"Ġpipe":4129,"Ġyach":4130,"Ġspir":4131,"Ġbreat":4132,"Ġlions":4133,"Ġblowing":4134,"come":4135,"io":4136,"Ġsle":4137,"Ġped":4138,"urb":4139,"Ġmarched":4140,"Ġdisturb":4141,"Ġspeak":4142,"Ġturkey":4143,"Ġtoilet":4144,"Bye":4145,"aked":4146,"ges":4147,"ron":4148,"Ġbicy":4149,"Ġfinds":4150,"Ġskill":4151,"Ġdrawings":4152,"Ġbarks":4153,"Ġlively":4154,"Ġstuffed":4155,"heart":4156,"Ġnail":4157,"Ġrever":4158,"ĠAndy":4159,"Ġpair":4160,"Ġsandcast":4161,"Ġnapkin":4162,"Ġended":4163,"Ġdancer":4164,"Ġpolish":4165,"Ġcostume":4166,"ĠSnowy":4167,"Ġyacht":4168,"Ġostrich":4169,"anic":4170,"Ġink":4171,"Ġfort":4172,"Ġsoftly":4173,"Ġmild":4174,"iling":4175,"Ġribb":4176,"chanic":4177,"ected":4178,"Ġraining":4179,"olin":4180,"gs":4181,"vator":4182,"Ġtube":4183,"Ġlid":4184,"Ġoil":4185,"Ġclub":4186,"Ġchubby":4187,"Ġuniver":4188,"Ġappl":4189,"Ġthanks":4190,"Ġinf":4191,"ecause":4192,"Ġmechanic":4193,"ĠWill":4194,"play":4195,"Ġcrow":4196,"Ġpiano":4197,"ĠGrace":4198,"Ġelevator":4199,"Ġbasketball":4200,"aulif":4201,"Ġbubble":4202,"Ġhoping":4203,"Ġbelt":4204,"Ġmixer":4205,"Ġstrip":4206,"Ġunhappy":4207,"Ġcaulif":4208,"ison":4209,"Ġglove":4210,"Ġairport":4211,"Ġspirit":4212,"Ġwife":4213,"Ġbikes":4214,"Ġhut":4215,"ites":4216,"Ġinsist":4217,"Ġpress":4218,"Ġjudge":4219,"Ġcups":4220,"Ġwelcomed":4221,"Ġframe":4222,"Ġmagaz":4223,"Ġgrabs":4224,"Everyone":4225,"Ġdrops":4226,"Ġleaned":4227,"edy":4228,"Ġmama":4229,"Ġthief":4230,"stic":4231,"Ġgrapes":4232,"âĤ¬âĢľ":4233,"Ġquarrel":4234,"mand":4235,"Ġevening":4236,"Ġprov":4237,"Ġrepair":4238,"Ġbaseball":4239,"Ġtemp":4240,"ws":4241,"Ġcelery":4242,"ĠMillie":4243,"Ġfactor":4244,"iastic":4245,"Ġbuzz":4246,"Ġimagine":4247,"Ġradish":4248,"arlie":4249,"Ġapologized":4250,"Ġsneak":4251,"Ġenthusiastic":4252,"Ġoyster":4253,"Ġtub":4254,"Ġluck":4255,"Ġmen":4256,"Ġrag":4257,"Ġdisplay":4258,"Ġgiven":4259,"Ġcounter":4260,"Ġbreaks":4261,"Ġcherries":4262,"Ġshelter":4263,"ĠBear":4264,"Ġmule":4265,"ĠdidnÃ¢":4266,"Ġmarry":4267,"Ġveil":4268,"Ġzoomed":4269,"Ġfactory":4270,"aff":4271,"azz":4272,"zzy":4273,"ĠBill":4274,"Ġfisher":4275,"Ġbicycle":4276,"Ġlend":4277,"Ġshade":4278,"Ġfeelings":4279,"Ġenergy":4280,"Ġpoem":4281,"Ġbul":4282,"Ġhopes":4283,"Ġfrogs":4284,"Ġcauliflower":4285,"imney":4286,"Ġrod":4287,"Ġprun":4288,"Ġchimney":4289,"Ġbears":4290,"Grandma":4291,"Daisy":4292,"Ġfurn":4293,"iture":4294,"Ġweep":4295,"Ġpole":4296,"Ġstretch":4297,"Ġfurniture":4298,"Ġgym":4299,"Ġplayer":4300,"apa":4301,"Ġraft":4302,"Ġmaze":4303,"Ġpaid":4304,"Ġbulb":4305,"ense":4306,"any":4307,"Ġstaff":4308,"chair":4309,"Ġshakes":4310,"icer":4311,"ippery":4312,"ccer":4313,"Ġdive":4314,"Ġsoccer":4315,"Ġlives":4316,"Ġkitty":4317,"rod":4318,"Ġintrod":4319,"Ġslippery":4320,"Ġcheek":4321,"Ġattention":4322,"Ġneighbour":4323,"Ġsheet":4324,"Ġnews":4325,"Ġtrail":4326,"Ġsmells":4327,"Ġfalling":4328,"Ġperfectly":4329,"Ġphoto":4330,"Ġviolin":4331,"eath":4332,"gen":4333,"Ġbur":4334,"Ġpine":4335,"Ġknot":4336,"ĠJerry":4337,"Ġchirp":4338,"Ġquit":4339,"ĠRu":4340,"ĠRosie":4341,"Ġmarried":4342,"Ġbananas":4343,"Ġsummer":4344,"Ġlang":4345,"Ġpage":4346,"Ġlie":4347,"Ġfirework":4348,"Ġsweetheart":4349,"Ġcrib":4350,"Ġlangu":4351,"Ġlime":4352,"Ġonion":4353,"Ġreve":4354,"Ġarmchair":4355,"Ġsprink":4356,"Ġbelongs":4357,"Ġcardboard":4358,"Ġgolden":4359,"Ġcabinet":4360,"ait":4361,"low":4362,"men":4363,"Ġsir":4364,"aring":4365,"Ġgro":4366,"ories":4367,"Ġshouldn":4368,"Ġwool":4369,"ĠSophie":4370,"ĠWould":4371,"ĠLee":4372,"Ġtrave":4373,"Ġsticky":4374,"Ġpuddles":4375,"Ġfields":4376,"Ġtuna":4377,"Ġchickens":4378,"bul":4379,"ĠSee":4380,"stead":4381,"Ġscolded":4382,"inarian":4383,"Ġswung":4384,"Ġvide":4385,"ÅĵYou":4386,"eterinarian":4387,"..":4388,"Ġtherm":4389,"Ġsoil":4390,"Ġstraight":4391,"Ġburned":4392,"Ġavocado":4393,"eve":4394,"Ġherb":4395,"Ġrot":4396,"hero":4397,"ometer":4398,"Ġflies":4399,"Ġveterinarian":4400,"Ġprevent":4401,"izes":4402,"reeze":4403,"Ġdisag":4404,"Ġpirates":4405,"Ġfisherman":4406,"ween":4407,"Ġnovel":4408,"aud":4409,"Ġoffer":4410,"Ġshovel":4411,"Ġcreated":4412,"Ġpetals":4413,"Ġjourn":4414,"Ġimagination":4415,"Daddy":4416,"Ġsuperhero":4417,"Ġbetween":4418,"Ġmeeting":4419,"Ġclassroom":4420,"Ġglowing":4421,"hic":4422,"Ġplastic":4423,"Ġtwink":4424,"Ġopera":4425,"Ġvehic":4426,"Ġkingdom":4427,"Ġmistakes":4428,"Ġmemories":4429,"Ġthermometer":4430,"Ch":4431,"Ġble":4432,"Ġcell":4433,"Ġpal":4434,"unately":4435,"Ġseeing":4436,"Ġshoulder":4437,"ĠKate":4438,"anges":4439,"Ġthrows":4440,"Ġfishing":4441,"aw":4442,"lass":4443,"Ġmeat":4444,"Ġceiling":4445,"Ġpassport":4446,"Ġignored":4447,"Ġjellyfish":4448,"Ġslept":4449,"ues":4450,"Ġtax":4451,"ĠBun":4452,"Ġforgotten":4453,"Ġcelebrated":4454,"Ġradio":4455,"Ġskirt":4456,"Ġdoors":4457,"ngth":4458,"Ġteleph":4459,"Ġjournal":4460,"Next":4461,"rs":4462,"Ġoak":4463,"Ġmakeup":4464,"Ġheads":4465,"Ġpresents":4466,"Ġaccepted":4467,"Ġtelephone":4468,"Because":4469,"arm":4470,"Ġstro":4471,"Ġallig":4472,"Your":4473,"agg":4474,"Ġflame":4475,"ĠdonÃ¢":4476,"Ġstrength":4477,"Ġvend":4478,"Ġthrowing":4479,"Ġpinch":4480,"Today":4481,"Ġinfant":4482,"ents":4483,"Ġvet":4484,"Emma":4485,"Ġfile":4486,"chie":4487,"Ġloop":4488,"Ġswamp":4489,"Ġambul":4490,"Ġpoints":4491,"Inside":4492,"Together":4493,"ĠTrue":4494,"Ġapplaud":4495,"Ġgrocer":4496,"Ġtaxi":4497,"Eventually":4498,"drobe":4499,"vision":4500,"urch":4501,"Ġalive":4502,"Ġwriting":4503,"Ġshouting":4504,"Ġbaking":4505,"Ġplanet":4506,"Ġwardrobe":4507,"Ġrubber":4508,"te":4509,"Ġcree":4510,"ores":4511,"Ġseas":4512,"Ġworth":4513,"Ġsung":4514,"Ġcube":4515,"Ġdiscu":4516,"Ġsteam":4517,"Ġwinter":4518,"Ġlemonade":4519,"achel":4520,"Ġmagazine":4521,"Ġpalace":4522,"Ġcreek":4523,"Ġwags":4524,"Ġfle":4525,"Ġitch":4526,"bbie":4527,"Ġshower":4528,"ĠInstead":4529,"Ġdiary":4530,"Ġsquirrels":4531,"Ġattach":4532,"Ġfolder":4533,"Ġhanging":4534,"Ġtelevision":4535,"Ġstrawberry":4536,"bor":4537,"ium":4538,"Ġaut":4539,"Ġstable":4540,"Ġboot":4541,"Ġquack":4542,"Ġgreedy":4543,"Ġfog":4544,"ĠPapa":4545,"ggy":4546,"nam":4547,"Ġinse":4548,"ssible":4549,"Ġflapped":4550,"Ġparent":4551,"Ġprepare":4552,"ĠAb":4553,"Ġhelper":4554,"Ġknob":4555,"ĠLilly":4556,"Ġchalk":4557,"Ġfollows":4558,"Ġsailing":4559,"Ġsurround":4560,"Ġmystery":4561,"Ġmedal":4562,"Ġsprayed":4563,"ito":4564,"Ġpra":4565,"icop":4566,"Ġvac":4567,"Ġornam":4568,"Ġmoves":4569,"ĠNext":4570,"Ġdisappear":4571,"Ġserve":4572,"Ġhelicop":4573,"Ġargue":4574,"Ġalligator":4575,"Ġambulance":4576,"Ġhelicopter":4577,"sit":4578,"tress":4579,"ĠHelp":4580,"ĠBaby":4581,"Ġgrin":4582,"Ġbelow":4583,"Ġsigns":4584,"Ġmattress":4585,"Ġharbor":4586,"Ġwaving":4587,"una":4588,"ĠJess":4589,"rosc":4590,"Ġdressed":4591,"Ġfreez":4592,"Ġstud":4593,"Ġeagerly":4594,"ĠUn":4595,"lasses":4596,"Ġsunglasses":4597,"ĠSu":4598,"Ġknown":4599,"ups":4600,"Ġminute":4601,"Ġmicrosc":4602,"ÅĵItÃ¢":4603,"Ġvendor":4604,"ab":4605,"lier":4606,"Ġpopped":4607,"Ġfiref":4608,"Ġcherry":4609,"Ġmicroscope":4610,"case":4611,"Ġwine":4612,"ising":4613,"imi":4614,"igail":4615,"Ġweigh":4616,"Ġrequ":4617,"Ġrooms":4618,"Ġgrill":4619,"Ġletting":4620,"Ġfallen":4621,"Ġapart":4622,"ĠAnnie":4623,"Ġfauc":4624,"Ġpear":4625,"Ġberry":4626,"Ġrefre":4627,"Ġcomplain":4628,"Ġlanguage":4629,"Did":4630,"elcome":4631,"Ġlawn":4632,"estig":4633,"ĠCo":4634,"Ġblackboard":4635,"Ġinvestig":4636,"Ġeasily":4637,"Ġwipe":4638,"Ann":4639,"mm":4640,"Ġbreeze":4641,"inky":4642,"Ġheaded":4643,"Ġquietly":4644,"aggie":4645,"Ġfaucet":4646,"tain":4647,"Ġsince":4648,"Ġcared":4649,"omob":4650,"iday":4651,"Ġthumb":4652,"amb":4653,"Ġcob":4654,"Ġtaller":4655,"Ġentered":4656,"ĠGod":4657,"Ġcrossed":4658,"Ġwhisper":4659,"Ġhappens":4660,"Ġleak":4661,"quito":4662,"Ġpoked":4663,"Ġsque":4664,"Ġchairs":4665,"Ġearlier":4666,"Ġkisses":4667,"Ġrelaxed":4668,"Ġreverse":4669,"Ġautomob":4670,"Ġig":4671,"Ġsuff":4672,"Ġfought":4673,"Ġpur":4674,"atie":4675,"Ġstad":4676,"Ġmusician":4677,"Ġregret":4678,"Ġcrawling":4679,"Ġimprove":4680,"Ġexercise":4681,"Ġigloo":4682,"Ġstadium":4683,"Ġwaste":4684,"ĠIÃ¢":4685,"Ġalarm":4686,"Ġcaring":4687,"Ġchurch":4688,"asis":4689,"Ġdelay":4690,"Ġdresses":4691,"Ġcrash":4692,"Ġapron":4693,"Ġsniffed":4694,"Ġwaffle":4695,"Ġvacation":4696,"Ġrequest":4697,"Ġwigg":4698,"Ġlumber":4699,"chor":4700,"Ġcliff":4701,"Ġfastest":4702,"Ġbalan":4703,"Ġolive":4704,"Ġseparate":4705,"Ġinvestigate":4706,"liday":4707,"web":4708,"yer":4709,"Ġsizes":4710,"ĠTony":4711,"Ġpoke":4712,"Ġholiday":4713,"Ġairpl":4714,"Ġinsect":4715,"'.":4716,"Lisa":4717,"Ġoasis":4718,"Ġsaus":4719,"ĠWho":4720,"Ġvroom":4721,"Ġsurprises":4722,"Ġappro":4723,"Ġsparkle":4724,"Ġpuzzles":4725,"Ġskills":4726,"squito":4727,"Ġcable":4728,"uckily":4729,"Ġmosquito":4730,"Thanks":4731,"Ġscrew":4732,"orses":4733,"Ġshrink":4734,"Ġyogurt":4735,"Ġaer":4736,"ero":4737,"Ġyield":4738,"Ġreaches":4739,"opl":4740,"Ġlotion":4741,"Ġamazement":4742,"Ġdear":4743,"Ġspots":4744,"fortunately":4745,"Ġbouncing":4746,"Ġdestination":4747,"Ġscattered":4748,"Ġcobweb":4749,"Ġaeropl":4750,"iately":4751,"ler":4752,"right":4753,"Ġtucked":4754,"Ġhorses":4755,"ety":4756,"Ġisn":4757,"mediately":4758,"Ġincre":4759,"Ġsupply":4760,"Ġsplashing":4761,"Ġlawyer":4762,"Wait":4763,"was":4764,"Ġrake":4765,"sters":4766,"Ġoranges":4767,"Ġfloat":4768,"Ġmint":4769,"Ġsafety":4770,"Ġtrusted":4771,"Ġdishwas":4772,"Ġdishwasher":4773,"mend":4774,"oral":4775,"Ġunif":4776,"Ġhearts":4777,"Ġmailman":4778,"Ġcollected":4779,"Ġflutter":4780,"Ġyawned":4781,"Ġvehicle":4782,"ives":4783,"Ġpit":4784,"ommend":4785,"ĠitÃ¢":4786,"Ġanchor":4787,"aces":4788,"Ġblueberries":4789,"Ġfloated":4790,"Ġshrugged":4791,"Ġshooting":4792,"Ġsqueeze":4793,"Ġbother":4794,"Ġsaving":4795,"Ġlaught":4796,"Ġrabbits":4797,"Ġcastles":4798,"Ġrecommend":4799,"Ġspending":4800,"ĠBuzz":4801,"Ġmuffin":4802,"Ġautomobile":4803,"Is":4804,"nger":4805,"Ġtut":4806,"Ġtug":4807,"inked":4808,"icing":4809,"place":4810,"Ġpoppy":4811,"ction":4812,"Ġdemand":4813,"ĠRe":4814,"Ġchoice":4815,"Ġexamine":4816,"Ġachie":4817,"omes":4818,"Ġlicks":4819,"raged":4820,"Ġspade":4821,"ops":4822,"âĤ¬.":4823,"Ġquiz":4824,"Ġhurting":4825,"Ġconf":4826,"Ġsparkling":4827,"Ġworms":4828,"Ġcandles":4829,"Ġexperience":4830,"Ġribbon":4831,"ĠJames":4832,"Ġkneel":4833,"Ġstruc":4834,"Ġbookcase":4835,"Ġfollowing":4836,"Ġsqueezed":4837,"Ġuniform":4838,"Ġlaughter":4839,"Ġstructure":4840,"ĠBet":4841,"ĠMimi":4842,"Ġagree":4843,"Ġeaten":4844,"Ġburied":4845,"Ġraz":4846,"Ġremove":4847,"Sammy":4848,"Ġbumped":4849,"Ġpenguin":4850,"Ġpraised":4851,"Ġsigh":4852,"Ġmention":4853,"Ġplates":4854,"Ġbury":4855,"ĠCharlie":4856,"Ġbeans":4857,"Ġinclud":4858,"Ġvideo":4859,"cakes":4860,"Ġsings":4861,"Ġtong":4862,"Ġrise":4863,"Ġplays":4864,"Ġspear":4865,"Ġsnap":4866,"Ġchess":4867,"Ġinstr":4868,"Ġminer":4869,"Ġfuel":4870,"Ġflea":4871,"nies":4872,"sing":4873,"ĊĠ":4874,"Ġsimp":4875,"Ġscooped":4876,"Ġblinked":4877,"Ġhills":4878,"Ġtornado":4879,"Yuck":4880,"Ġwashing":4881,"Ġequ":4882,"Ġsnapped":4883,"Ġunderstanding":4884,"ĠOr":4885,"Ġignore":4886,"Ġringing":4887,"Ġcaptain":4888,"ival":4889,"Ġbattery":4890,"Ġsettled":4891,"Ġdestroyed":4892,"Ġrazor":4893,"Ġdried":4894,"Ġmall":4895,"ionary":4896,"Ġkeeping":4897,"Ġideas":4898,"Ġgrowled":4899,"Ġblankets":4900,"Ġappreciate":4901,"ĠRuby":4902,"Ġtoes":4903,"Ġpalm":4904,"ĠRachel":4905,"Ġadmir":4906,"ictionary":4907,"ib":4908,"Ġfest":4909,"ĠHenry":4910,"ĠMiss":4911,"Ġmanage":4912,"Ġwatches":4913,"Ġglo":4914,"Ġfireplace":4915,"ĠKing":4916,"Ġsits":4917,"Ġenter":4918,"Ġwandered":4919,"ĠClara":4920,"Ġsandcastle":4921,"Ġaeroplane":4922,"Will":4923,"ived":4924,"ĠTed":4925,"Ġmyself":4926,"omeday":4927,"Ġlabel":4928,"Ġbleed":4929,"Peter":4930,"apping":4931,"Ġdictionary":4932,"Ġport":4933,"ĠHarry":4934,"amber":4935,"Ġbravely":4936,"Ġcoats":4937,"Ġmelted":4938,"Ġtide":4939,"Ġyucky":4940,"alley":4941,"Ġjunk":4942,"ĠDanny":4943,"Ġsetting":4944,"Ġjewelry":4945,"Ġstrawberries":4946,"Ġyoga":4947,"Ġoats":4948,"Ġfreezer":4949,"loe":4950,"ring":4951,"Ġtore":4952,"ĠIts":4953,"Ġscore":4954,"Ġroot":4955,"Ġclaws":4956,"uggage":4957,"Ġsneeze":4958,"Ġstomach":4959,"Ġtutor":4960,"Ġluggage":4961,"Ġpages":4962,"Ġpride":4963,"Ġtrade":4964,"Ġclimbs":4965,"Ġgifts":4966,"With":4967,"Ġsomeday":4968,"bey":4969,"ĠSpike":4970,"Ġfloating":4971,"Ġmoments":4972,"Ġplanes":4973,"Ġhits":4974,"Ġvanished":4975,"Ġscratch":4976,"Ġairplane":4977,"Fl":4978,"Ġbeamed":4979,"Ġprop":4980,"Ġappear":4981,"Mandy":4982,"umble":4983,"antly":4984,"Ġbelieved":4985,"Ġbeef":4986,"Ġsub":4987,"Ġrepeat":4988,"Ġstruggling":4989,"rise":4990,"Ġga":4991,"ĠIs":4992,"Ġweap":4993,"Ġblueberry":4994,"Ġburning":4995,"ĠBefore":4996,"Ġtemple":4997,"ah":4998,"ls":4999,"vet":5000,"Ġdire":5001,"Ġitem":5002,"Ġchores":5003,"Ġvalley":5004,"Ġjogging":5005,"emember":5006,"Ġdrain":5007,"Ġelephants":5008,"Ġwhistling":5009,"ĠSteve":5010,"Ġweeks":5011,"Ġtongue":5012,"ĠTina":5013,"ishing":5014,"Ġgear":5015,"Ġnation":5016,"Ġshot":5017,"Ġsport":5018,"Ġimmediately":5019,"Ġcalls":5020,"Ġremain":5021,"ission":5022,"Ġcuddled":5023,"Ġpermission":5024,"Ġfestival":5025,"Ġlily":5026,"lend":5027,"Ġhers":5028,"Ġres":5029,"Ġranch":5030,"Ġchamber":5031,"Ġpoison":5032,"Ġsunrise":5033,"Ġraise":5034,"Ġcrunch":5035,"Ġteaching":5036,"Ġbathe":5037,"house":5038,"iers":5039,"Ġhomes":5040,"Ġpulling":5041,"Ġsteak":5042,"Ġpatiently":5043,"Ġmarbles":5044,"Ġbreathe":5045,"Ġprovide":5046,"Ġhesit":5047,"ĠHave":5048,"uture":5049,"seek":5050,"ĠEach":5051,"aped":5052,"Ġcalend":5053,"Ġpeanuts":5054,"ĠAbigail":5055,"Ġcalendar":5056,"'ve":5057,"osed":5058,"Ġfuture":5059,"Ġstitch":5060,"Ġjazz":5061,"Ġspit":5062,"Ġwarmth":5063,"Ġpaused":5064,"Ġbuckle":5065,"Ġpastel":5066,"Ġcollecting":5067,"Ġticket":5068,"ĠFreddy":5069,"allow":5070,"ipment":5071,"Ġthrilled":5072,"ĠGood":5073,"Ġdifferen":5074,"Ġhotel":5075,"Ġprayed":5076,"Ġapproached":5077,"Ġgust":5078,"Ġshed":5079,"fume":5080,"Ġalright":5081,"Ġtease":5082,"Ġwarning":5083,"Ġencouraged":5084,"Ġchirping":5085,"Ġequipment":5086,"Jen":5087,"Mark":5088,"Tweet":5089,"Ġdaisy":5090,"Ġbegged":5091,"Ġsocks":5092,"Ġshamp":5093,"Ġcoal":5094,"Ġskull":5095,"Ġskipping":5096,"Ġperfume":5097,"Ġanswers":5098,"Ġmissile":5099,"Ġpanic":5100,"Ġearthqu":5101,"Ġpunish":5102,"Ġinsisted":5103,"Ġshampoo":5104,"Ġcakes":5105,"Ġnone":5106,"Ġlick":5107,"Ġrestore":5108,"osity":5109,"Ġsoldiers":5110,"Ġtwisted":5111,"mother":5112,"These":5113,"Ġmeowed":5114,"Ġdoggy":5115,"Ġhardly":5116,"xture":5117,"Ġguy":5118,"Ġrespons":5119,"Ġsolved":5120,"Ġjewels":5121,"Ġreceived":5122,"Ġobserve":5123,"Qu":5124,"Welcome":5125,"Ġlect":5126,"Ġevent":5127,"Ġsore":5128,"Ġlic":5129,"Ġsew":5130,"Ġunite":5131,"Ġreceive":5132,"Ġbricks":5133,"Ġrevealed":5134,"Ġlecture":5135,"Ouch":5136,"fy":5137,"Ġpist":5138,"anna":5139,"Ġbites":5140,"Ġdeeper":5141,"Ġordered":5142,"Ġpistol":5143,"act":5144,"Ġbang":5145,"Ġdigg":5146,"Ġsty":5147,"Ġfasc":5148,"Ġcopper":5149,"Ġcomfy":5150,"Ġparts":5151,"Ġmatches":5152,"Ġpatterns":5153,"Ġrecognized":5154,"Ġrefreshed":5155,"Ġemer":5156,"Ġremained":5157,"Ġworks":5158,"Ġinvite":5159,"ĠCoco":5160,"Ġdigging":5161,"Ġsip":5162,"ities":5163,"Ġrow":5164,"Ġupstairs":5165,"Ġjail":5166,"Ġchir":5167,"ases":5168,"Ġblood":5169,"Johnny":5170,"Ġdrinking":5171,"Ġwarn":5172,"Ġsupposed":5173,"Ġhate":5174,"ĠJul":5175,"Ġracing":5176,"Ġmustache":5177,"Ġdiscovery":5178,"ÅĵThatÃ¢":5179,"ĠPeople":5180,"Ġdiscuss":5181,"Ġgrinned":5182,"Ġchirped":5183,"All":5184,"cc":5185,"sity":5186,"ari":5187,"Ġrush":5188,"Ġwherever":5189,"Ġours":5190,"Ġbookshe":5191,"Ġcircus":5192,"Ġurge":5193,"Ġmeasured":5194,"Ġsimple":5195,"Ġfascin":5196,"\",":5197,"utty":5198,"ĠMay":5199,"Ġgirls":5200,"Ġspill":5201,"ĠLater":5202,"Ġdecision":5203,"Ġsunlight":5204,"Ġmass":5205,"Ġplanted":5206,"Ġgrape":5207,"Ġlicense":5208,"bers":5209,"eed":5210,"lvet":5211,"riger":5212,"Ġeff":5213,"Ġbeg":5214,"aper":5215,"Ġjogged":5216,"Ġreplace":5217,"Ġcrashed":5218,"Ġvelvet":5219,"Ġpigs":5220,"Ġapologize":5221,"Ġrefriger":5222,"Ġbuzzing":5223,"Ġsuffer":5224,"Ġearthquake":5225,"Ġrefrigerator":5226,"Mmm":5227,"Ġbak":5228,"Ġobey":5229,"allen":5230,"ĠEveryday":5231,"Ġglowed":5232,"ĠPenny":5233,"Ġwrites":5234,"Ġactually":5235,"Ġclearing":5236,"oved":5237,"Ġheat":5238,"!\",":5239,"Ġnewsp":5240,"Ġraised":5241,"ÅĵNo":5242,"Ġbringing":5243,"Ġeasier":5244,"Ġselling":5245,"Ġuniversity":5246,"Ġweapon":5247,"Ġdifference":5248,"Sh":5249,"tory":5250,"ĠV":5251,"Ġbill":5252,"Ġhistory":5253,"Ġchallen":5254,"ĠJoy":5255,"Ġrested":5256,"Ġmarching":5257,"Ġbathrobe":5258,"Ġinvit":5259,"Ġawe":5260,"Ġsettle":5261,"Ġcartoons":5262,"Ġbookshelf":5263,"Ġtoe":5264,"oming":5265,"Ġgain":5266,"htray":5267,"Ġashtray":5268,"Ġworse":5269,"Ġlaid":5270,"Ġlets":5271,"Ġturning":5272,"Ġcontinue":5273,"Ġsparkles":5274,"Ġlands":5275,"Before":5276,"Ġdecorations":5277,"Ġprepared":5278,"kins":5279,"Ġbes":5280,"Ġfed":5281,"enty":5282,"Ġwhip":5283,"Ġscur":5284,"Ġflood":5285,"ĠFo":5286,"Ġstrang":5287,"Ġremem":5288,"ĠNot":5289,"Ġcompany":5290,"Ġspoons":5291,"Ġfirefight":5292,"ĠRemy":5293,"Ġdare":5294,"Ġslip":5295,"Ġwatered":5296,"Ġhated":5297,"Ġagreement":5298,"Ġbrick":5299,"Ġmenu":5300,"Ġremembers":5301,"ging":5302,"Ġtremb":5303,"bbled":5304,"Ġproblems":5305,"ude":5306,"Ġsoared":5307,"ĠMilly":5308,"Ġfash":5309,"Ġpossible":5310,"izard":5311,"Ġfamil":5312,"Ġchewed":5313,"irpy":5314,"Ġadmiring":5315,"Ġcrunchy":5316,"Ġmitten":5317,"Ġwanting":5318,"Ġbrus":5319,"Ġattached":5320,"Ġexamined":5321,"Ġtomatoes":5322,"Ġdisagre":5323,"Jake":5324,"Would":5325,"fied":5326,"walk":5327,"Ġweren":5328,"indy":5329,"Ġmonsters":5330,"looking":5331,"Ġsprinkles":5332,"Ġbeside":5333,"Moral":5334,"Ġtip":5335,"ĠLiz":5336,"Ġslice":5337,"Ġfixing":5338,"Ġpracticing":5339,"Ġvillag":5340,"ÅĵIÃ¢":5341,"Ġneighborhood":5342,"Ġpupil":5343,"Ġcurled":5344,"Ġstrangers":5345,"ha":5346,"atch":5347,"Ġrust":5348,"Ġflap":5349,"Ġoper":5350,"Ġgrey":5351,"Ġbrain":5352,"Ġcub":5353,"Ġtrapped":5354,"Ġtracks":5355,"ĠKatie":5356,"Ġmouths":5357,"Really":5358,"Ġgrocery":5359,"Ġsurrounded":5360,"Ġeffort":5361,"Ġnewspaper":5362,"Ex":5363,"cles":5364,"hest":5365,"Ġcal":5366,"Ġonwards":5367,"Ġweight":5368,"ĠDan":5369,"Ġpeel":5370,"Ġwond":5371,"Ġcontain":5372,"Ġcutting":5373,"Ġgloves":5374,"Ro":5375,"Ġwre":5376,"Ġbun":5377,"Ġhanger":5378,"ĠLuna":5379,"Ġflav":5380,"Ġfreeze":5381,"ĠChloe":5382,"Emily":5383,"nie":5384,"xy":5385,"Ġwaist":5386,"Ġduring":5387,"ays":5388,"ora":5389,"Ġspaces":5390,"omething":5391,"Ġperched":5392,"Ġcomple":5393,"Ġsidewalk":5394,"Ġcollection":5395,"Ġsafari":5396,"Ġseats":5397,"Ġguns":5398,"Ġpinched":5399,"Ġescaped":5400,"Ġrides":5401,"Ġmodel":5402,"Ġsubway":5403,"Ġvillagers":5404,"Ġrhy":5405,"asp":5406,"Ġdownstairs":5407,"Ġrained":5408,"Ġtalent":5409,"ĠNutty":5410,"Ġbowed":5411,"Ġbuildings":5412,"Ġpaints":5413,"Ġreminder":5414,"Ġwisdom":5415,"Ġargued":5416,"ĠBubbles":5417,"Ġcostumes":5418,"Ġsausage":5419,"Not":5420,"ĠSund":5421,"aded":5422,"Ġwaits":5423,"Ġdrinks":5424,"Ġwhistled":5425,"Ġintroduc":5426,"Ġfashion":5427,"uing":5428,"Ġwizard":5429,"Ġmister":5430,"ĠBeth":5431,"Ġmudd":5432,"Ġgotten":5433,"Ġzipped":5434,"Ġfiremen":5435,"Ġvisiting":5436,"ĠFloppy":5437,"Ġaccidents":5438,"Ġsliding":5439,"Ġtwigs":5440,"Ġmemory":5441,"Ġpermit":5442,"Fluffy":5443,"Le":5444,"do":5445,"dam":5446,"neath":5447,"Ġx":5448,"Ġsix":5449,"Ġwid":5450,"Ġpitch":5451,"ĠHoppy":5452,"adly":5453,"ĠMaggie":5454,"ĠFro":5455,"Ġpeered":5456,"ĠCat":5457,"thm":5458,"Ġzero":5459,"Ġsteel":5460,"Ġpetted":5461,"Ġpancakes":5462,"Ġprice":5463,"Ġdinosaurs":5464,"Ġmineral":5465,"Ġbleeding":5466,"Ġmuddy":5467,"Ha":5468,"Ġbones":5469,"Ġweighed":5470,"Ġpears":5471,"Ġanytime":5472,"Ġeagle":5473,"Ġmountains":5474,"Ġmeasuring":5475,"Ġbunnies":5476,"Ok":5477,"Sometimes":5478,"Yum":5479,"ided":5480,"Ġsting":5481,"isten":5482,"Ġpearl":5483,"ÅĵThank":5484,"Ġneighbors":5485,"Ġfolded":5486,"ĠChr":5487,"Ġhurric":5488,"reen":5489,"Ġlamb":5490,"Ġnavy":5491,"Ġarea":5492,"Ġbrid":5493,"Ġbrushed":5494,"Ġchef":5495,"Ġvoices":5496,"Ġshopping":5497,"avi":5498,"ĠOl":5499,"Ġscratched":5500,"Ġgrandmother":5501,"Ġencourage":5502,"Ġpadd":5503,"Ġprune":5504,"Ġbrings":5505,"Ġmeow":5506,"Ġdecides":5507,"Ġbeds":5508,"Ġswims":5509,"Ġpets":5510,"Ġbottles":5511,"ĠSomeone":5512,"Ġpillows":5513,"Ġguessed":5514,"Ġpedal":5515,"Ġmassage":5516,"Ġwonders":5517,"!'":5518,"ĠOnce":5519,"Ġlung":5520,"Ġripped":5521,"riage":5522,"Ġleather":5523,"Ġsnowball":5524,"Ġsecrets":5525,"Ġcomforted":5526,"Ġinvitation":5527,"Ġhurricane":5528,"cage":5529,"mare":5530,"son":5531,"ides":5532,"amie":5533,"Ġhappiest":5534,"ĠMat":5535,"terday":5536,"ica":5537,"Ġbirdcage":5538,"Ġrang":5539,"Ġoverjoy":5540,"ĠPoppy":5541,"ĠLetÃ¢":5542,"Ġcatching":5543,"ĠChirpy":5544,"ĠAnne":5545,"Ġcuddle":5546,"Ġornament":5547,"ĠSuzy":5548,"Ġfascinated":5549,"Ġdisagreed":5550,"Ġoverjoyed":5551,"cious":5552,"Ġscoop":5553,"ĠLucky":5554,"Ġstruck":5555,"Ġglitter":5556,"Ġunderground":5557,"Ġstole":5558,"Ġmarkers":5559,"Ġzooming":5560,"Ġwaffles":5561,"Ready":5562,"Ġinstruct":5563,"Ġstyle":5564,"Ġoperation":5565,"xygen":5566,"Ġrhythm":5567,"Or":5568,"ĠThese":5569,"igz":5570,"Ġpretti":5571,"Ġsnail":5572,"Ġkindly":5573,"Ġpupp":5574,"Ġbrand":5575,"Ġnightmare":5576,"Ġactiv":5577,"ĠHowever":5578,"Ġsneezed":5579,"Ġrecognize":5580,"Ġbridges":5581,"Ġprettiest":5582,"First":5583,"Ġrele":5584,"Ġexact":5585,"Ġeveryday":5586,"Ġblouse":5587,"Ġvowed":5588,"Ġteasp":5589,"Ġrail":5590,"Ġcones":5591,"Ġtastes":5592,"Ġdrift":5593,"Ġsatis":5594,"Ġwooden":5595,"Ġdoctors":5596,"laire":5597,"Ġhurried":5598,"Ġsucceeded":5599,"Ġdisturbed":5600,"Ġtravell":5601,"ĠBetsy":5602,"Ġteaspoon":5603,"Susie":5604,"mble":5605,"oed":5606,"Ġtugged":5607,"Ġbare":5608,"ĠMe":5609,"Ġcontro":5610,"Ġpiles":5611,"Ġstudied":5612,"Ġbillboard":5613,"ĠSunday":5614,"gers":5615,"Ġoxygen":5616,"etch":5617,"Ġstruggled":5618,"Ġimage":5619,"Ġbye":5620,"aster":5621,"ÅĵLook":5622,"Ġkeeps":5623,"Ġcrept":5624,"Ġtune":5625,"Ġacorns":5626,"Ġmuffins":5627,"Ġlips":5628,"ĠSharing":5629,"Ġitems":5630,"rin":5631,"uke":5632,"Ġlines":5633,"Ġcaut":5634,"ĠSomething":5635,"Ġtremble":5636,"anta":5637,"Ġunderneath":5638,"ÅĵDon":5639,"Ġladyb":5640,"Ġperfor":5641,"Ġplanned":5642,"Ġserved":5643,"Ġbloomed":5644,"Ġincluded":5645,"Ġspaceship":5646,"Happy":5647,"len":5648,"uzz":5649,"imy":5650,"Ġloving":5651,"Ġofficer":5652,"avid":5653,"Ġsuitc":5654,"Ġparked":5655,"Ġscreams":5656,"Ġtickets":5657,"Ġsoaring":5658,"Ġmentioned":5659,"Ġresponsible":5660,"Ġbegin":5661,"ding":5662,"Ġwagging":5663,"Ġbeat":5664,"Ġbeard":5665,"ĠItÃ¢":5666,"Ġsorting":5667,"ÅĵWe":5668,"Ġkeeper":5669,"Ġcreation":5670,"ffic":5671,"Ġtraffic":5672,"Ġlandsc":5673,"Ġneighbourhood":5674,"Ġcompleted":5675,"Luckily":5676,"Ġtonight":5677,"ĠTiny":5678,"Ġeight":5679,"Ġeats":5680,"Ġhonk":5681,"Ġsights":5682,"Ġshivered":5683,"Ġpotatoes":5684,"Ġolives":5685,"Dave":5686,"Rex":5687,"Remember":5688,"Ġdied":5689,"Ġgained":5690,"Ġbend":5691,"Ġcuriosity":5692,"Ġemergen":5693,"Ġscurried":5694,"Ġintroduced":5695,"Ġinstructions":5696,"Ġvent":5697,"Ġprecious":5698,"izing":5699,"Ġpaintings":5700,"Andy":5701,"Ġdecorated":5702,"Ġuniverse":5703,".'":5704,"George":5705,"Ġnicer":5706,"Ġago":5707,"Ġwhatever":5708,"Ġrealize":5709,"Ġsteep":5710,"ĠJenna":5711,"Ġaccom":5712,"Ġmachines":5713,"Ġmovies":5714,"Ġcompetition":5715,"Ġshadows":5716,"Ġprunes":5717,"Ġexactly":5718,"Ġsi":5719,"Ġann":5720,"Ġrocked":5721,"Ġdraws":5722,"Ġguest":5723,"Ġprotected":5724,"Ġsolut":5725,"uctantly":5726,"igzag":5727,"Ġlandscape":5728,"ux":5729,"zen":5730,"Ġsadness":5731,"Ġslapped":5732,"Ġowned":5733,"ĠRa":5734,"Ġbeha":5735,"Ġprinter":5736,"Ġfrosting":5737,"Ġbeneath":5738,"Ġpowers":5739,"Ġintroduce":5740,"lowly":5741,"Ġproperly":5742,"Ġwreck":5743,"uxu":5744,"Mar":5745,"bies":5746,"Ġbank":5747,"ĠSunny":5748,"Ġinch":5749,"bert":5750,"ĠJosh":5751,"Ġshoulders":5752,"Ġyelling":5753,"Ġcontest":5754,"Ġpouring":5755,"Ġlemons":5756,"Ġlibrarian":5757,"Ġstealing":5758,"âĤ¬âĢĿ":5759,"Ġrubbing":5760,"Ġpenguins":5761,"Ġreleased":5762,"Ye":5763,"ales":5764,"Ġluxu":5765,"ĠTw":5766,"Ġweb":5767,"Ġknelt":5768,"ĠRob":5769,"Ġruin":5770,"Ġbabies":5771,"Ġsisters":5772,"iggy":5773,"Ġmixing":5774,"Ġkeys":5775,"ĠOllie":5776,"Ġgathering":5777,"Ġtwirling":5778,"Ġsilence":5779,"Ġurged":5780,"fit":5781,"hins":5782,"rr":5783,"ashed":5784,"Ġstruggle":5785,"Ġpurred":5786,"Ġcontrol":5787,"omas":5788,"Ġtheirs":5789,"Ġsorted":5790,"Ġforgi":5791,"Joey":5792,"Ġfrozen":5793,"Ġreluctantly":5794,"Ġunlocked":5795,"Ġcrackers":5796,"Ġfireworks":5797,"Ġbarely":5798,"Ġaccompl":5799,"mel":5800,"Ġsides":5801,"Ġmice":5802,"ishes":5803,"Ġsoak":5804,"ĠBir":5805,"Ġshock":5806,"Ġoutdo":5807,"Ġexit":5808,"Ġbudge":5809,"ĠCar":5810,"Ġdragged":5811,"Ġcrumb":5812,"Ġmuscles":5813,"Ġspiders":5814,"Ġpunished":5815,"Ġstripes":5816,"Ġchallenge":5817,"Teddy":5818,"iar":5819,"Ġdam":5820,"Ġloose":5821,"Ġoutfit":5822,"ĠAn":5823,"ÅĵCan":5824,"Ġpastels":5825,"Ġbouncy":5826,"Ġdolphins":5827,"ĠFrank":5828,"Ġrepeated":5829,"Ġachieve":5830,"zing":5831,"Ġ1":5832,"ĠHop":5833,"ppers":5834,"Ġranger":5835,"agull":5836,"ĠFirst":5837,"Ġopin":5838,"thank":5839,"though":5840,"Ġwaiter":5841,"Ġbreaking":5842,"Ġprinted":5843,"Ġwinning":5844,"Ġpockets":5845,"Ġexpect":5846,"Ġexpected":5847,"Ġroads":5848,"Ġroaring":5849,"Ġfigured":5850,"ĠZoe":5851,"Ġemergency":5852,"rance":5853,"Ġthro":5854,"Ġlied":5855,"Ġchases":5856,"Ġbecoming":5857,"bbing":5858,"Ġbuckets":5859,"Ġmission":5860,"ĠStop":5861,"Ġpoliceman":5862,"uesday":5863,"Ġbrushes":5864,"Ġthroat":5865,"ien":5866,"shing":5867,"edding":5868,"ĠTuesday":5869,"ĠBig":5870,"Ġseagull":5871,"Ġclick":5872,"ĠDid":5873,"Ġpeaches":5874,"Ġslimy":5875,"ĠletÃ¢":5876,"Ġwondering":5877,"Ġplanets":5878,"Ġentire":5879,"Ġstirring":5880,"Ġscreaming":5881,"Ġclaps":5882,"Ġdiscovering":5883,"Ġcamping":5884,"Ġcrowd":5885,"ĠUncle":5886,"Kitty":5887,"pected":5888,"Ġwest":5889,"Ġtour":5890,"Ġpies":5891,"ĠLike":5892,"Ġsnugg":5893,"Ġsitu":5894,"Ġstaring":5895,"Ġstretching":5896,"Ġsneaked":5897,"Ġapplauded":5898,"Ġincrease":5899,"Ġguys":5900,"ÅĵDonÃ¢":5901,"Bella":5902,"Un":5903,"ĠJan":5904,"Ġhomework":5905,"Ġhowever":5906,"ĠCindy":5907,"Ġunex":5908,"Ġseesaw":5909,"Ġacted":5910,"Ġspraying":5911,"Ġcountryside":5912,"Ġbalancing":5913,"Ġsiren":5914,"Ġunexpected":5915,"die":5916,"zie":5917,"Ġboo":5918,"Ġfart":5919,"itely":5920,"Ġda":5921,"lee":5922,"Ġworries":5923,"Ġgoodnight":5924,"Ġtouching":5925,"Ġhighest":5926,"Ġgiggling":5927,"Goodbye":5928,"ĠAlways":5929,"Ġconfident":5930,"Ġtrembling":5931,"Ġcautious":5932,"Ġsuitcase":5933,"Ġoutdoors":5934,"James":5935,"Mr":5936,"Pete":5937,"bric":5938,"jam":5939,"ern":5940,"Ġheel":5941,"Ġmittens":5942,"ĠSanta":5943,"Ġallow":5944,"Ġfabric":5945,"Ġteasing":5946,"Ġbroom":5947,"Ġourselves":5948,"ults":5949,"Ġmarriage":5950,"Ġpassing":5951,"Ġscru":5952,"Ġleader":5953,"ĠUnfortunately":5954,"Ġdemanded":5955,"Ġsighs":5956,"Ġladybug":5957,"jamas":5958,"hell":5959,"Ġcape":5960,"ĠTilly":5961,"Ġplenty":5962,"Ġscra":5963,"Ġmatching":5964,"Ġrainbows":5965,"Ġentrance":5966,"Ġsupplies":5967,"Ġshivering":5968,"Ġnails":5969,"Ġdirection":5970,"annah":5971,"Ġluxury":5972,"Ella":5973,"Henry":5974,"Mike":5975,"Mittens":5976,"vers":5977,"Ġripe":5978,"Ġstare":5979,"Ġrelease":5980,"inda":5981,"Ġflat":5982,"Ġvict":5983,"ĠDavid":5984,"Ġgrant":5985,"ĠGr":5986,"Ġsweets":5987,"Ġbaked":5988,"ulu":5989,"Ġreaching":5990,"Ġwinner":5991,"Ġcompletely":5992,"ĠJulie":5993,"Ġsatisfied":5994,"Ġsolution":5995,"dies":5996,"Ġmater":5997,"essie":5998,"aky":5999,"Ġgreet":6000,"Ġtexture":6001,"Ġrestored":6002,"Ġcuts":6003,"...":6004,"Ġtwinkling":6005,"Ġmateri":6006,"Ah":6007,"Lola":6008,"nes":6009,"Ġti":6010,"Ġwedding":6011,"Ġheav":6012,"ĠBy":6013,"ĠLizzy":6014,"ason":6015,"Ġpoking":6016,"ĠPip":6017,"aced":6018,"Ġsweeties":6019,"Ġproject":6020,"Ġcurly":6021,"Ġsurface":6022,"Ġcurtains":6023,"Ġseason":6024,"ĠJessie":6025,"Ġbalanced":6026,"Ġresult":6027,"ody":6028,"vin":6029,"ĠYes":6030,"Ġbunch":6031,"Ġfara":6032,"Ġge":6033,"Ġeast":6034,"ĠJon":6035,"aren":6036,"Ġsnakes":6037,"ÅĵHello":6038,"Ġwritten":6039,"Ġpajamas":6040,"Ġsinger":6041,"ĠDolly":6042,"Ġrolls":6043,"Ġpastries":6044,"Ġinterest":6045,"Ġrescued":6046,"Ġloaded":6047,"cuse":6048,"lowers":6049,"Ġquacked":6050,"Ġfaraway":6051,"uly":6052,"Ġwound":6053,"ednes":6054,"ĠSlowly":6055,"ĠMad":6056,"ĠJe":6057,"Ġcomm":6058,"Ġforehead":6059,"Ġunited":6060,"acob":6061,"Ġzigzag":6062,"Ġpolishing":6063,"Ġmarker":6064,"ĠOut":6065,"Ġprayer":6066,"Ġhorns":6067,"Ġmelting":6068,"Ġrecorded":6069,"Ġstudying":6070,"Ġtasks":6071,"Ġpaddle":6072,"Ġinclude":6073,"Ġburrow":6074,"Ġdisagree":6075,"Ġkneeled":6076,"Leo":6077,"ednesday":6078,"Paul":6079,"ĠQu":6080,"Ġboom":6081,"ĠWednesday":6082,"Ġflames":6083,"Ġstrings":6084,"ÅĵThis":6085,"Ġcreating":6086,"Ġmatched":6087,"Ġdeser":6088,"Ġtrips":6089,"Ġcrabs":6090,"Ġmagnets":6091,"Ġshelves":6092,"Excuse":6093,"eep":6094,"ĠSure":6095,"Ġstair":6096,"icorn":6097,"Ġcatches":6098,"Ġslap":6099,"Ġbravery":6100,"Ġunicorn":6101,"Ġtowels":6102,"Ġkicking":6103,"Ġcheering":6104,"ophia":6105,"Ġvanish":6106,"Ġdusty":6107,"Ġphotos":6108,"Bun":6109,"pe":6110,"Ëľ":6111,"Ġwink":6112,"Ġdent":6113,"ena":6114,"igi":6115,"une":6116,"Ġstartled":6117,"âĤ¬Ëľ":6118,"Ġchat":6119,"Ġblink":6120,"Ġpebbles":6121,"ledge":6122,"Ġbedtime":6123,"Ġreplaced":6124,"Ġsingle":6125,"Ġdragons":6126,"Ġmotion":6127,"However":6128,"Ġpencils":6129,"Ġbumps":6130,"Ġstamps":6131,"Ġweeping":6132,"Ġitchy":6133,"Ġornaments":6134,"Ġgazed":6135,"Ġventured":6136,"Fred":6137,"go":6138,"hee":6139,"Ġsway":6140,"Ġfetch":6141,"irm":6142,"ĠBird":6143,"ĠBye":6144,"ĠAdam":6145,"Ġhugging":6146,"Ġknowledge":6147,"Ġtruly":6148,"Ġworker":6149,"Ġcracked":6150,"Ġbuying":6151,"Ġhealed":6152,"Ġmisses":6153,"Ġarguing":6154,"Annie":6155,"Ġregretted":6156,"Alex":6157,"cers":6158,"reat":6159,"ayla":6160,"ĠFor":6161,"ĠClaire":6162,"Ġremoved":6163,"ÅĵMommy":6164,"Ġwrist":6165,"Ġfoods":6166,"Ġtractor":6167,"Ġrainco":6168,"Ġsticking":6169,"Ġusually":6170,"Ġprints":6171,"Ġdrives":6172,"ĠwasnÃ¢":6173,"Ġpolished":6174,"angled":6175,"Ġpatience":6176,"Ġrelief":6177,"Ġrockets":6178,"Ġtickle":6179,"Ġcovers":6180,"Ġsandcastles":6181,"Ġactivities":6182,"Ġfarther":6183,"Ġraincoat":6184,"Fr":6185,"Mrs":6186,"boo":6187,"cope":6188,"iles":6189,"Ġrumble":6190,"Ġstern":6191,"Ġshined":6192,"Ġcans":6193,"ĠJamie":6194,"Ġroots":6195,"ĠPipp":6196,"Ġexplorers":6197,"Ġstolen":6198,"Ġusual":6199,"ĠNick":6200,"Ġopening":6201,"Afterwards":6202,"Ġgrowling":6203,"hog":6204,"Ġchewing":6205,"Ġflags":6206,"Ġpeeking":6207,"Grandpa":6208,"Ġstrike":6209,"Ġobserved":6210,"ĠChrist":6211,"ĠRabbit":6212,"melia":6213,"lings":6214,"you":6215,"int":6216,"Ġcent":6217,"Ġpout":6218,"ĠSadly":6219,"ords":6220,"ĠLarry":6221,"usted":6222,"ÅĵOh":6223,"Ġsmiley":6224,"Ġuses":6225,"Ġyells":6226,"Ġpartic":6227,"Ġthreat":6228,"Ġcoloured":6229,"Ġglasses":6230,"Ġtraveled":6231,"Yeah":6232,"Millie":6233,"Sandy":6234,"Ġbumpy":6235,"Ġrisk":6236,"Ġyouth":6237,"Ġspike":6238,"opes":6239,"Ġfault":6240,"Ġchips":6241,"Ġfoc":6242,"Ġsnat":6243,"Ġrocking":6244,"Ġruler":6245,"Ġgrowl":6246,"Ġcelebration":6247,"Ġherbs":6248,"abel":6249,"Ġfirefighters":6250,"ĠMatt":6251,"mas":6252,"per":6253,"rious":6254,"indr":6255,"Ġchuck":6256,"asm":6257,"ĠCarl":6258,"Ġraindr":6259,"ÅĵWhy":6260,"Ġstaying":6261,"oys":6262,"Ġowners":6263,"Ġteaches":6264,"Ġdesert":6265,"Ġvalued":6266,"Ġtickled":6267,"Ġsilent":6268,"Ġfreed":6269,"Ġseems":6270,"Ġsquares":6271,"Ġrubs":6272,"Ġhedgehog":6273,"Ġimproved":6274,"ĠRover":6275,"Ġseashell":6276,"Ġsquealed":6277,"Ġcrumbs":6278,"Ġvictory":6279,"jo":6280,"Ġdipped":6281,"oni":6282,"Ġsobbed":6283,"ĠChe":6284,"ĠPl":6285,"ĠPinky":6286,"Ġlistens":6287,"ĠThomas":6288,"Ġrule":6289,"Ġyesterday":6290,"Ġcreamy":6291,"Ġpatted":6292,"Ġfuzzy":6293,"Ġtemper":6294,"Ġparticular":6295,"Sophie":6296,"Ġtodd":6297,"Ġfirm":6298,"Ġden":6299,"aty":6300,"Ġbead":6301,"Ġexha":6302,"ĠWater":6303,"Ġlap":6304,"ĠLuckily":6305,"ĠLinda":6306,"ĠLulu":6307,"bbly":6308,"Ġpeppers":6309,"Ġcoloring":6310,"ĠGreen":6311,"Ġcaused":6312,"ĠLeave":6313,"Ġadding":6314,"Ġwandering":6315,"Ġwiggled":6316,"Ġfamilies":6317,"ĠChristmas":6318,"Bobby":6319,"Cl":6320,"Polly":6321,"oh":6322,"hello":6323,"Ġcash":6324,"iding":6325,"ences":6326,"ĠĊĠ":6327,"opsy":6328,"ĠGigi":6329,"Ġworkers":6330,"ĠEmmy":6331,"Ġwinked":6332,"Ġsafer":6333,"Ġreveal":6334,"Ġtwinkle":6335,"Ġgaze":6336,"Ġopinion":6337,"Ġsituation":6338,"Ġraindrops":6339,"pite":6340,"Ġast":6341,"Ġcous":6342,"Ġdared":6343,"Ġpause":6344,"isies":6345,"esome":6346,"Ġech":6347,"ĠBoth":6348,"Ġnect":6349,"ĠMany":6350,"ĠcanÃ¢":6351,"Ġfaced":6352,"Ġchoo":6353,"Ġneedles":6354,"itches":6355,"Ġresting":6356,"Ġarrive":6357,"Ġagrees":6358,"Ġpacking":6359,"Ġactions":6360,"ĠOwl":6361,"Bobo":6362,"Grace":6363,"Ġunpacked":6364,"ĠJessica":6365,"Ġdaisies":6366,"Ġexhausted":6367,"Ġnectar":6368,"Fine":6369,"Uh":6370,"band":6371,"eke":6372,"fl":6373,"Ġtim":6374,"Ġaff":6375,"Ġlined":6376,"Ġcough":6377,"Ġwasted":6378,"ley":6379,"ĠyouÃ¢":6380,"Ġgoals":6381,"urry":6382,"Ġmane":6383,"Ġswooped":6384,"ĠFriend":6385,"Ġdeli":6386,"ĠNan":6387,"oline":6388,"Ġbowls":6389,"Ġinviting":6390,"Ġpleasure":6391,"Ġnetwork":6392,"Ġawesome":6393,"Ġjackets":6394,"Ġdelivered":6395,"Ġscrubbed":6396,"Ġtemperature":6397,"Days":6398,"Rose":6399,"njoy":6400,"Ġcause":6401,"arter":6402,"immer":6403,"Ġliqu":6404,"Ġsmarter":6405,"Ġrobb":6406,"ongo":6407,"ĠSpark":6408,"Ġbehavi":6409,"Ġreads":6410,"Ġdarkness":6411,"Ġfairies":6412,"Ġmarked":6413,"Ġwarri":6414,"Ġspeaking":6415,"Ġblooming":6416,"Ġcopy":6417,"Ġhallway":6418,"Ġgroceries":6419,"Ġliquid":6420,"udy":6421,"Ġwow":6422,"eds":6423,"Ġhi":6424,"Ġpiggy":6425,"ĠSus":6426,"ĠHappy":6427,"Ġsoaked":6428,"Ġwears":6429,"Ġscales":6430,"Ġfever":6431,"ĠLuke":6432,"Ġknees":6433,"Ġimportance":6434,"uggles":6435,"Ġprincesses":6436,"Ġreply":6437,"Ġblows":6438,"ĠSnuggles":6439,"Ġwires":6440,"Ġachieved":6441,"ĠFollow":6442,"Ġcalmed":6443,"Ġdrifted":6444,"Ġcautiously":6445,"Ġsnatched":6446,"Maggie":6447,"ĠĠĊ":6448,"Ġty":6449,"irts":6450,"Ġstem":6451,"Ġseven":6452,"ĠJones":6453,"Ġsomebody":6454,"ĠEls":6455,"Ġyourselves":6456,"ĠwouldnÃ¢":6457,"Ġcowb":6458,"izzie":6459,"Ġleading":6460,"Ġribbons":6461,"Ġrecommended":6462,"Ġinterested":6463,"Ġchuckled":6464,"Ġbeads":6465,"Ġdelivery":6466,"ossible":6467,"Ġsense":6468,"Ġbars":6469,"Ġglee":6470,"Ġspong":6471,"ĠJay":6472,"Ġswirl":6473,"Ġtwin":6474,"emma":6475,"Ġimpossible":6476,"boat":6477,"Ġpots":6478,"ĠOw":6479,"Ġmasks":6480,"ÅĵWhatÃ¢":6481,"Ġfluttered":6482,"Ġbakery":6483,"Ġsnowballs":6484,"Ġdentist":6485,"mies":6486,"Ġmes":6487,"ĠTess":6488,"igning":6489,"Ġrip":6490,"Ġkites":6491,"Ġlosing":6492,"Ġremote":6493,"Ġbadge":6494,"Ġdreamt":6495,"Ġnaps":6496,"Ġnapkins":6497,"Ġorganizing":6498,"Ġwipes":6499,"ĠZoom":6500,"Ġknights":6501,"Ġhelmets":6502,"Ġtempt":6503,"Ġstroll":6504,"Ġstroked":6505,"Ġpaddled":6506,"Ġforgiven":6507,"Ġmesmer":6508,"Harry":6509,"ik":6510,"Ġlimes":6511,"ĠAbbie":6512,"ĠElly":6513,"usband":6514,"Ġlearns":6515,"Ġjoking":6516,"Ġcloses":6517,"Ġfroze":6518,"ĠJohnson":6519,"Ġpointy":6520,"Ġsecure":6521,"ĠBeing":6522,"Ġawake":6523,"Ġpedals":6524,"Ġbaker":6525,"Ġannoy":6526,"Unfortunately":6527,"Ġcashier":6528,"mallow":6529,"Ġopp":6530,"arling":6531,"Ġbelly":6532,"Ġcolored":6533,"Ġhider":6534,"Ġprotecting":6535,"Ġpassen":6536,"Ġsplashes":6537,"Ġdetermination":6538,"Ġseeker":6539,"Ġfilling":6540,"Ġradishes":6541,"arshmallow":6542,"Ġstomped":6543,"ĠSuzie":6544,"Tweety":6545,"Ab":6546,"ĠY":6547,"ĠSorry":6548,"Ġinsp":6549,"ades":6550,"ĠAmelia":6551,"Ġnoses":6552,"ĠMomo":6553,"ĠPut":6554,"Ġdeal":6555,"Ġstorekeeper":6556,"ĠDoggy":6557,"Ġtallest":6558,"Ġmuscle":6559,"Ġtails":6560,"Ġsigned":6561,"Ġscaring":6562,"Ġscarves":6563,"Ġcandies":6564,"Ġleaning":6565,"Ġgiraff":6566,"Ġobjects":6567,"Ġsneaky":6568,"Ġaccomplish":6569,"Ġtipt":6570,"Ġwarrior":6571,"Ġsponge":6572,"va":6573,"Ġtig":6574,"Ġaud":6575,"Ġsib":6576,"Ġhusband":6577,"ouch":6578,"iled":6579,"Ġrising":6580,"endy":6581,"alph":6582,"ĠJacob":6583,"?\",":6584,"Ġbacked":6585,"Ġleap":6586,"Ġmeals":6587,"ĠWatch":6588,"Ġeverybody":6589,"ishy":6590,"Ġcreations":6591,"Ġunf":6592,"ĠGet":6593,"Ġafterwards":6594,"Ġhealth":6595,"brush":6596,"Ġmiles":6597,"Ġzookeeper":6598,"Ġrecording":6599,"Ġarrows":6600,"Ġartist":6601,"Ġcheeks":6602,"Charlie":6603,"Ġsnuggle":6604,"Ġgiraffes":6605,"Ġtigers":6606,"For":6607,"tuce":6608,"vest":6609,"ans":6610,"Ġweeke":6611,"ĠBongo":6612,"itted":6613,"ĠMira":6614,"Ġaren":6615,"icky":6616,"Ġflapping":6617,"Ġchip":6618,"Ġlettuce":6619,"Ġdancers":6620,"Ġconn":6621,"Ġconcer":6622,"ĠPam":6623,"ths":6624,"Ġarr":6625,"Ġsteer":6626,"Ġparties":6627,"Ġhides":6628,"Ġmarks":6629,"Ġdiving":6630,"Ġsalty":6631,"Ġgracefully":6632,"Ġavoid":6633,"Ġhesitated":6634,"ĠGoodbye":6635,"Ġtravelled":6636,"ĠJeff":6637,"Ġweekend":6638,"Fin":6639,"Ġcust":6640,"Ġdots":6641,"Ġmi":6642,"ilo":6643,"ann":6644,"Ġthird":6645,"Ġyum":6646,"Ġfeast":6647,"ĠLou":6648,"aura":6649,"Ġslices":6650,"Ġsnuck":6651,"ĠCra":6652,"Ġracc":6653,"ĠPrin":6654,"Ġhandsome":6655,"Ġdef":6656,"Ġtricked":6657,"Ġsailboat":6658,"ĠFlopsy":6659,"Ġpotion":6660,"ments":6661,"Ġburst":6662,"Ġdiscussed":6663,"Ġhesitant":6664,"ĠNothing":6665,"Ġrusty":6666,"Ġtalented":6667,"Ġtoddler":6668,"Ġafford":6669,"Ġcustom":6670,"Ġraccoon":6671,"aa":6672,"ners":6673,"uzzy":6674,"Ġtangled":6675,"Ġhissed":6676,"ĠMa":6677,"icked":6678,"ĠFar":6679,"Ġslam":6680,"Ġdrawn":6681,"Ġcorners":6682,"Ġspoonful":6683,"Ġpans":6684,"Ġrequested":6685,"ĠBetty":6686,"Ġdirect":6687,"Ġlungs":6688,"Ġsiblings":6689,"An":6690,"Katie":6691,"zes":6692,"Ġcott":6693,"Ġdie":6694,"ids":6695,"llen":6696,"Ġneither":6697,"Ġbackwards":6698,"ept":6699,"Ġflight":6700,"ĠEarth":6701,"Ġswept":6702,"Ġhandful":6703,"ĠRobby":6704,"Ġprinting":6705,"Ġpretends":6706,"Ġdarker":6707,"Ġsnowmen":6708,"Ġembarrass":6709,"Ġfolding":6710,"Ġpumpkins":6711,"Ġlogs":6712,"Ġwraps":6713,"ivity":6714,"Ġsausages":6715,"Ġfluttering":6716,"Maria":6717,"Ġtiptoed":6718,"Ġmixture":6719,"Boo":6720,"ded":6721,"eal":6722,"pit":6723,"Ġlower":6724,"ility":6725,"Ġrus":6726,"ickey":6727,"Ġchop":6728,"ĠEnjoy":6729,"Ġgrandp":6730,"Ġgrabbing":6731,"ĠJacky":6732,"Ġadult":6733,"Those":6734,"ĠPo":6735,"Ġdrawers":6736,"ĠKayla":6737,"Ġgasp":6738,"ĠZoomy":6739,"Meow":6740,"ĠBuzzy":6741,"Ġsuperheroes":6742,"Ġinsects":6743,"Ġwidened":6744,"ĠPippin":6745,"Ġcousin":6746,"Ġaudience":6747,"Great":6748,"Ru":6749,"Ġwins":6750,"Ġocc":6751,"Ġbeam":6752,"ĠBinky":6753,"ĠAunt":6754,"Ġfears":6755,"Ġworn":6756,"Ġcond":6757,"Ġwilling":6758,"aker":6759,"Ġwindy":6760,"Ġgrassy":6761,"Ġrivers":6762,"umbling":6763,"Ġstarfish":6764,"Ġclowns":6765,"Ġrefle":6766,"Ġbasement":6767,"Ġexperien":6768,"Ġfamiliar":6769,"Ġflavor":6770,"Ġchefs":6771,"Ġperforman":6772,"Ġbeginning":6773,"Ew":6774,"abby":6775,"cited":6776,"no":6777,"Ġgross":6778,"ĠSophia":6779,"sequ":6780,"Ġrefu":6781,"ĠMon":6782,"ĠJazz":6783,"iece":6784,"Ġdads":6785,"Ġbully":6786,"Ġconsequ":6787,"Ġuns":6788,"Ġsnowfl":6789,"Ġcreativity":6790,"Ġforgetting":6791,"Ġwrapping":6792,"Ġcelebrating":6793,"Toby":6794,"Ġpaying":6795,"Ġknocks":6796,"Ġcomplained":6797,"ĠRobert":6798,"Ġsprinkled":6799,"Ġfirefighter":6800,"Roar":6801,"ĠOlive":6802,"Ġheavier":6803,"Ġpouted":6804,"ĠPrincess":6805,"Ġgrandpare":6806,"Run":6807,"Whee":6808,"Ġmerry":6809,"ĠHoot":6810,"Ġropes":6811,"ados":6812,"Ġwept":6813,"Ġreass":6814,"ĠMel":6815,"Ġbodies":6816,"ĠJune":6817,"using":6818,"ĠJojo":6819,"Ġstays":6820,"obody":6821,"retty":6822,"Ġkicks":6823,"Ġshrinking":6824,"Ġrecipe":6825,"Ġsource":6826,"Ġindeed":6827,"Ġforks":6828,"Ġscratches":6829,"Ġavocados":6830,"Ġseparated":6831,"Ġprovided":6832,"Ġsurroundings":6833,"Shh":6834,"ĠFox":6835,"Ġpuppies":6836,"Bad":6837,"Danny":6838,"Ellie":6839,"Kate":6840,"tle":6841,"Ġwadd":6842,"ĠHannah":6843,"Ġrings":6844,"Ġspikes":6845,"ĠLizzie":6846,"aula":6847,"ĠEverybody":6848,"iley":6849,"Ġdollhouse":6850,"Ġcrew":6851,"ĠGary":6852,"Ġbeloved":6853,"ĠKeep":6854,"Ġattack":6855,"ĠWithout":6856,"ĠBluey":6857,"Ġtricky":6858,"Ġseconds":6859,"Ġhumans":6860,"Ġpresses":6861,"Ġincluding":6862,"Ġgranted":6863,"ĠFriends":6864,"Ġconsequences":6865,"?'":6866,"Bl":6867,"Milly":6868,"Nemo":6869,"cake":6870,"fall":6871,"wk":6872,"Ġhour":6873,"Ġdarling":6874,"Ġmaster":6875,"Ġnine":6876,"Ġhawk":6877,"Ġstool":6878,"Ġplucked":6879,"Ġgobbled":6880,"ĠAbby":6881,"Ġglued":6882,"Ġdresser":6883,"ĠNina":6884,"athan":6885,"Ġmagician":6886,"Ġtalks":6887,"Ġplans":6888,"Ġneighbours":6889,"Ġhoriz":6890,"Ġwishing":6891,"Ġedges":6892,"Ġtunnels":6893,"Ġgems":6894,"Ġdelivering":6895,"Ġneatly":6896,"Ġinstrum":6897,"Ġbehaved":6898,"ĠGranny":6899,"Ġdeserve":6900,"Ġtimer":6901,"Fo":6902,"Wh":6903,"urious":6904,"Ġtouc":6905,"ĠSpl":6906,"ĠBessie":6907,"Ġteased":6908,"Ġamong":6909,"Ġruining":6910,"ĠJaney":6911,"Ġscrews":6912,"Ġsailors":6913,"Ġplanning":6914,"ĠStay":6915,"Ġcrossing":6916,"Ġlollipops":6917,"Ġsymbols":6918,"Ġbuzzed":6919,"Ġwarnings":6920,"Ġswimsuit":6921,"Ġmaterials":6922,"ĠSusan":6923,"Ġaccomplishment":6924,"Ġrushing":6925,"Ġperformance":6926,"Ġhorizon":6927,"Nina":6928,"Some":6929,"Tw":6930,"rig":6931,"the":6932,"Ġhitting":6933,"Ġmarshmallow":6934,"Ġpens":6935,"Ġonward":6936,"choo":6937,"Ġspices":6938,"Ġhelpers":6939,"Ġfact":6940,"Ġage":6941,"ĠLi":6942,"ĠListen":6943,"Ġflas":6944,"ÅĵDo":6945,"Ġremembering":6946,"Ġamount":6947,"Ġblocking":6948,"ĠOur":6949,"Ġpaths":6950,"Ġdrums":6951,"ĠZara":6952,"Ġdesigns":6953,"Ġmushrooms":6954,"ronaut":6955,"Ġcobwebs":6956,"Ġastronaut":6957,"Ġechoed":6958,"Ġdirections":6959,"Ġtouches":6960,"Dan":6961,"Even":6962,"Ġmer":6963,"atur":6964,"Ġsan":6965,"Ġstung":6966,"Ġonions":6967,"Ġplayers":6968,"step":6969,"Ġleast":6970,"Ġbru":6971,"Ġteles":6972,"Ġraces":6973,"Ġstrongest":6974,"ĠRemember":6975,"Ġchoices":6976,"Ġbaskets":6977,"Ġforgets":6978,"Ġpeacefully":6979,"Ġmatters":6980,"Ġtested":6981,"Ġresisted":6982,"ĠRobbie":6983,"ÅĵYouÃ¢":6984,"ably":6985,"Ġwiggle":6986,"Ġdamage":6987,"Ġscraped":6988,"Ruby":6989,"Ġmarshmallows":6990,"Ġtelescope":6991,"Pe":6992,"Time":6993,"Tina":6994,"fire":6995,"tier":6996,"ĠQ":6997,"Ġcor":6998,"ĠSqu":6999,"ĠSque":7000,"rip":7001,"Ġyounger":7002,"ntil":7003,"ĠWell":7004,"ĠEl":7005,"Ġvines":7006,"Ġprettier":7007,"ÅĵWow":7008,"ÅĵMy":7009,"Ġconvers":7010,"Ġgrowls":7011,"Ġbaths":7012,"Ġimagining":7013,"Ġhonked":7014,"Ġgenie":7015,"Ġpoems":7016,"Ġminerals":7017,"Ġrustling":7018,"ĠTwo":7019,"Ġgreeted":7020,"Ġpassengers":7021,"Ġoccas":7022,"Ġsank":7023,"During":7024,"Kim":7025,"dges":7026,"iel":7027,"now":7028,"Ġtuck":7029,"ition":7030,"Ġmast":7031,"Ġmunch":7032,"aying":7033,"Ġstitches":7034,"Ġneare":7035,"ĠJudy":7036,"Ġscient":7037,"Ġadults":7038,"Ġache":7039,"Ġnearly":7040,"Ġcuriously":7041,"Ġrespond":7042,"Ġimages":7043,"ĠStitch":7044,"Ġfeeding":7045,"Ġvanilla":7046,"Ġpraying":7047,"Ġborrowed":7048,"artha":7049,"Ġcushions":7050,"manda":7051,"Ġcomplaining":7052,"Ġincreased":7053,"ĠFrog":7054,"Ġbehaving":7055,"Ġcommun":7056,"immering":7057,"Ġbehavior":7058,"Ġmesmerized":7059,"ĠFarmer":7060,"Ġunsure":7061,"Ġscientist":7062,"By":7063,"Ducky":7064,"May":7065,"Mad":7066,"aired":7067,"ky":7068,"lves":7069,"Ġcoral":7070,"ĠTara":7071,"Ġsale":7072,"Ġplaytime":7073,"Ġnotes":7074,"allowed":7075,"ĠWendy":7076,"ĠLena":7077,"Ġswallowed":7078,"ueen":7079,"Ġtramp":7080,"Ġtwice":7081,"Ġwobbly":7082,"Ġdances":7083,"Ġzipping":7084,"ĠAsh":7085,"Ġjoyful":7086,"Ġstands":7087,"Ġdrivers":7088,"Ġhopeful":7089,"Ġrepaired":7090,"Ġsunflowers":7091,"Ġenthusi":7092,"Ġrewarded":7093,"Ġcenter":7094,"rigued":7095,"Ġtrampoline":7096,"Have":7097,"Our":7098,"Oops":7099,"Ġcoup":7100,"Ġpours":7101,"Ġoh":7102,"Ġnibb":7103,"ĠSc":7104,"Ġnoon":7105,"Ġscen":7106,"Ġcoc":7107,"Ġflown":7108,"ĠEx":7109,"Ġswords":7110,"Ġtreehouse":7111,"Ġtrot":7112,"Ġbraver":7113,"Ġwobble":7114,"Ġwobbled":7115,"ÅĵHi":7116,"ÅĵWell":7117,"Ġdropping":7118,"Ġhearing":7119,"attered":7120,"Ġhealing":7121,"Ġaction":7122,"Ġspreading":7123,"ĠMikey":7124,"ĠFroggy":7125,"ĠBirthday":7126,"Ġgeese":7127,"Ġarranged":7128,"Ġenthusiasm":7129,"Ġcouple":7130,"dri":7131,"ippy":7132,"weed":7133,"yes":7134,"initely":7135,"itched":7136,"itude":7137,"Ġdet":7138,"atul":7139,"Ġnood":7140,"Ġease":7141,"ĠMouse":7142,"ĠMilo":7143,"ĠMickey":7144,"idey":7145,"Ġjugg":7146,"Ġspins":7147,"Ġblast":7148,"ĠFuzzy":7149,"Ġpecked":7150,"Ġslips":7151,"iona":7152,"Ġfinal":7153,"Ġfinishing":7154,"ĠPr":7155,"acy":7156,"Ġwarmer":7157,"Ġsandpit":7158,"Ġlighter":7159,"Ġslower":7160,"Ġelf":7161,"anging":7162,"Ġprove":7163,"Ġbeeh":7164,"ĠThanks":7165,"Ġwiping":7166,"Ġheroes":7167,"Ġencourag":7168,"Ġtriangles":7169,"Ġrefreshing":7170,"Ġtravelling":7171,"Ġguests":7172,"Ġ10":7173,"ĠQuack":7174,"ĠQueen":7175,"--":7176,"Like":7177,"bell":7178,"bird":7179,"ĊĊ":7180,"Ġ2":7181,"Ġaimed":7182,"Ġsadd":7183,"ĠSmo":7184,"imon":7185,"Ġthorn":7186,"ĠHolly":7187,"veral":7188,"Ġplain":7189,"adie":7190,"Ġshirts":7191,"Ġreason":7192,"ĠMabel":7193,"Ġseveral":7194,"ĠLaura":7195,"Ġflips":7196,"Ġposs":7197,"Ġexplo":7198,"Ġoffic":7199,"ÅĵMom":7200,"ÅĵCome":7201,"ÅĵNow":7202,"Ġthrown":7203,"Ġdefe":7204,"ĠNobody":7205,"Ġsteady":7206,"Ġpennies":7207,"Ġseaweed":7208,"Ġlifting":7209,"Ġacting":7210,"ertain":7211,"ĠAlthough":7212,"Ġantic":7213,"Ġexamining":7214,"Ġseller":7215,"Ġawo":7216,"ĠUnder":7217,"Ġcampfire":7218,"Ġoysters":7219,"Ġbreathed":7220,"Ġvideos":7221,"Ġfirefly":7222,"Ġyielded":7223,"Ġfocused":7224,"ĠElsa":7225,"Ġdefinitely":7226,"Follow":7227,"Br":7228,"Lilly":7229,"Pat":7230,"Tr":7231,"Yummy":7232,"ears":7233,"yond":7234,"Ġsy":7235,"Ġfaded":7236,"ĠSun":7237,"anes":7238,"Ġbeyond":7239,"Ġstain":7240,"rie":7241,"stick":7242,"Ġscamp":7243,"Ġchos":7244,"Ġpeck":7245,"Ġheading":7246,"Ġsquishy":7247,"ĠThose":7248,"Ġbows":7249,"Ġpolitely":7250,"Ġvisitor":7251,"Ġcupcakes":7252,"Ġchopped":7253,"Ġcausing":7254,"Ġexpress":7255,"Ġlifts":7256,"Steve":7257,"illiam":7258,"Ġthud":7259,"years":7260,"Ġcuddly":7261,"Ġproper":7262,"Ġsports":7263,"Ġfreedom":7264,"Ġsnowflakes":7265,"Ġnoodles":7266,"Ġbeehive":7267,"Ġchosen":7268,"aven":7269,"bro":7270,"cher":7271,"ratul":7272,"while":7273,"Ġdaring":7274,"inger":7275,"Ġsofter":7276,"str":7277,"unched":7278,"ently":7279,"Ġshown":7280,"Ġroars":7281,"ongratul":7282,"Ġwhose":7283,"ĠFire":7284,"Ġtwenty":7285,"ĠSpidey":7286,"ĠRain":7287,"Ġwarmly":7288,"Ġthroughout":7289,"ĠwonÃ¢":7290,"Ġdived":7291,"ĠAlong":7292,"Ġnervously":7293,"Ġtwisting":7294,"Ġdiamonds":7295,"Ġtoaster":7296,"Ġsniffs":7297,"Ġsneezing":7298,"Ġsurfboard":7299,"Ġstacked":7300,"Ġinsisting":7301,"ĠAbi":7302,"Ġpupils":7303,"Ġflavors":7304,"Ġrobber":7305,"Ġcowboy":7306,"Ġslammed":7307,"Car":7308,"Miss":7309,"Sadly":7310,"Woof":7311,"cl":7312,"mered":7313,"Ġaim":7314,"ido":7315,"onies":7316,"Ġinj":7317,"utter":7318,"ĠBo":7319,"ĠBoun":7320,"ĠJax":7321,"Ġcharge":7322,"Ġintrigued":7323,"Ġovercome":7324,"Ġpuff":7325,"Ġexplorer":7326,"Ġstopping":7327,"Ġwrink":7328,"ĠGemma":7329,"Ġtables":7330,"ĠKaren":7331,"otten":7332,"Ġbelongings":7333,"Ġmailed":7334,"Ġdriveway":7335,"Ġignoring":7336,"Ġdecorating":7337,"Ġwhispers":7338,"Ġtwisty":7339,"Ġstreamers":7340,"Ġdesigned":7341,"Ġgrandson":7342,"Ġstatues":7343,"Ġperforming":7344,"Ġlending":7345,"Ġtwinkled":7346,"Ġloops":7347,"Ġwhispering":7348,"Ġsuffered":7349,"Ġlicking":7350,"Ġsewed":7351,"ĠSparky":7352,"iki":7353,"Ġgrandparents":7354,"Blue":7355,"Ġawoke":7356,"Jerry":7357,"Su":7358,"cter":7359,"upt":7360,"yan":7361,"Ġfant":7362,"Ġdot":7363,"Ġmate":7364,"Ġponies":7365,"Ġrotten":7366,"Ġplayroom":7367,"Ġshoo":7368,"Ġroses":7369,"Ġcoach":7370,"Ġcosy":7371,"Ġprob":7372,"Ġgoodies":7373,"Ġsled":7374,"Ġbeautifully":7375,"Ġdollars":7376,"Ġunw":7377,"Ġforests":7378,"ĠRavi":7379,"Ġbelts":7380,"uffin":7381,"Ġunderstands":7382,"meal":7383,"Ġjoining":7384,"Ġfits":7385,"Ġcalmly":7386,"Ġleads":7387,"ĠZero":7388,"Ġswans":7389,"Ġoatmeal":7390,"Ġsurrendered":7391,"Ġquarreling":7392,"Ġnovels":7393,"Ġresults":7394,"Ġpunishment":7395,"Ġtrembled":7396,"Ġwider":7397,"Ġreflection":7398,"ĠSquirrel":7399,"ĠSqueaky":7400,"Ġanticip":7401,"Ġscampered":7402,"Ġfantastic":7403,"Ġprobably":7404,"Adam":7405,"Surpr":7406,"ael":7407,"eel":7408,"rup":7409,"sm":7410,"sers":7411,"whe":7412,"Ġtiss":7413,"Ġtying":7414,"Ġgap":7415,"Ġnapping":7416,"anwhile":7417,"iment":7418,"onse":7419,"rier":7420,"ĠBee":7421,"Ġmanag":7422,"ĠWally":7423,"Ġchara":7424,"ĠDr":7425,"Ġslither":7426,"Ġwaterfall":7427,"Ġfins":7428,"Ġcolder":7429,"ichael":7430,"Ġfoxes":7431,"Ġshops":7432,"ounced":7433,"Ġresponse":7434,"Ġpicnics":7435,"Ġappreciated":7436,"Ġconfl":7437,"ĠJulia":7438,"ĠChris":7439,"Ġperformed":7440,"rrr":7441,"ĠBirdy":7442,"Frank":7443,"Ġrisks":7444,"Ġforgiveness":7445,"Ġconnected":7446,"Ġmerma":7447,"broken":7448,"Ġcharacter":7449,"Baby":7450,"Jul":7451,"Listen":7452,"Very":7453,"crow":7454,"mates":7455,"Ġais":7456,"its":7457,"Ġcertain":7458,"ilted":7459,"Ġgest":7460,"ĠSk":7461,"ĠSw":7462,"cky":7463,"child":7464,"ĠMartha":7465,"Ġaside":7466,"Ġscored":7467,"ĠWin":7468,"ĠLove":7469,"Ġposter":7470,"Ġposit":7471,"Ġtweet":7472,"Ġhanding":7473,"Ġgardener":7474,"Ġconvin":7475,"Ġrainy":7476,"ĠRalph":7477,"Ġelbow":7478,"Ġcloudy":7479,"ĠStan":7480,"Ġpostman":7481,"Ġsniffing":7482,"ĠUntil":7483,"Ġgrandchild":7484,"Ġappreciation":7485,"Ġscrewdri":7486,"Tweetie":7487,"Ġspills":7488,"Ġseashells":7489,"Ġannoyed":7490,"Abigail":7491,"ĠCrabby":7492,"Ġwaddled":7493,"Ġencouraging":7494,"Ġsyrup":7495,"Ġanticipation":7496,"Ġscrewdriver":7497,"Back":7498,"Tilly":7499,"ae":7500,"but":7501,"found":7502,"oss":7503,"Ġtar":7504,"Ġtipped":7505,"Ġwag":7506,"rey":7507,"Ġlent":7508,"Ġni":7509,"ana":7510,"onna":7511,"espite":7512,"ooking":7513,"Ġramp":7514,"Ġweeds":7515,"Ġshady":7516,"Ġkings":7517,"Ġreun":7518,"ĠMo":7519,"Ġjars":7520,"ĠAny":7521,"Ġexcept":7522,"ighting":7523,"Ġnodd":7524,"Ġchanging":7525,"Ġwatering":7526,"Ġsmallest":7527,"Ġsnort":7528,"Ġbravest":7529,"Ġcheers":7530,"ĠPandy":7531,"Ġsweetest":7532,"Ġcraft":7533,"Ġworrying":7534,"Ġsails":7535,"Ġbelieving":7536,"Ġheartbroken":7537,"Ġlaying":7538,"Ġpops":7539,"Ġbells":7540,"Ġnecklaces":7541,"Ġsuggestion":7542,"Ġpreparing":7543,"Ġpedaled":7544,"Ġreversed":7545,"Ġstudents":7546,"Ġincreasing":7547,"Ġresponsib":7548,"Quick":7549,"Ġsuffering":7550,"ĠSplash":7551,"Ġconversation":7552,"Ġofficers":7553,"Bet":7554,"Beth":7555,"Karen":7556,"Mine":7557,"father":7558,"munk":7559,"ollen":7560,"ĠX":7561,"Ġties":7562,"Ġtumbled":7563,"Ġgonna":7564,"ambled":7565,"Ġstumble":7566,"storm":7567,"Ġreapp":7568,"Ġswollen":7569,"ÅĵOf":7570,"Ġconqu":7571,"Ġblocked":7572,"Ġbiting":7573,"Ġnests":7574,"Ġrespected":7575,"Ġangels":7576,"Ġpepperoni":7577,"Ġbatteries":7578,"Ġpermitted":7579,"Ġzebras":7580,"Ġmeowing":7581,"Ġpuppet":7582,"Ġgears":7583,"Ġconcert":7584,"Ġreassured":7585,"Ġtrotted":7586,"Bill":7587,"Bunny":7588,"Each":7589,"Jamie":7590,"Rob":7591,"cie":7592,"wise":7593,"Ġtoss":7594,"Ġheight":7595,"ĠTuna":7596,"ĠSal":7597,"order":7598,"Ġev":7599,"Ġearn":7600,"Ġund":7601,"Ġrather":7602,"Ġstall":7603,"ĠthatÃ¢":7604,"ĠMart":7605,"Ġsmashed":7606,"Ġanger":7607,"Ġspook":7608,"Ġmemb":7609,"Ġnewfound":7610,"Ġblond":7611,"Ġthoughts":7612,"Ġtapped":7613,"Ġskunk":7614,"Ġquilt":7615,"ection":7616,"Whenever":7617,"Ġwrigg":7618,"Ġtoward":7619,"athy":7620,"Ġfires":7621,"Ġdrown":7622,"Ġcrashing":7623,"Ġpromises":7624,"Ġcounts":7625,"ĠTodd":7626,"Ġvegg":7627,"Ġpaintbrush":7628,"Ġplanting":7629,"Ġstreets":7630,"Ġpays":7631,"Ġscrambled":7632,"ĠZip":7633,"Ġsoapy":7634,"Ġsuits":7635,"ĠDavey":7636,"Ġdiscoveries":7637,"Ġspeeding":7638,"uctor":7639,"Ġpassports":7640,"Anne":7641,"amboo":7642,"Ġdelayed":7643,"Ġwiggly":7644,"Ġuniforms":7645,"Ġefforts":7646,"Ġdamaged":7647,"Ġfirmly":7648,"ĠLouise":7649,"Ġmermaid":7650,"Ġspooky":7651,"Ġmembers":7652,"?!\"":7653,"Out":7654,"Rachel":7655,"ms":7656,"oey":7657,"prin":7658,"sie":7659,"vas":7660,"Ġwoof":7661,"Ġhoo":7662,"Ġpound":7663,"Ġnuzz":7664,"ances":7665,"orter":7666,"ĠHope":7667,"amma":7668,"Ġbeating":7669,"Ġsoot":7670,"ading":7671,"ĠMuffin":7672,"ugs":7673,"Ġsped":7674,"fus":7675,"ĠAmanda":7676,"romise":7677,"usty":7678,"ĠFuzz":7679,"ĠFiona":7680,"ĠFido":7681,"Ġcleared":7682,"ÅĵOkay":7683,"Ġdangers":7684,"Ġcleaner":7685,"ĠGina":7686,"Ġrains":7687,"Ġhops":7688,"Ġmonths":7689,"Ġtablet":7690,"Ġjudges":7691,"Ġshaped":7692,"Ġmints":7693,"Ġbandages":7694,"Ġpanicked":7695,"Ġtidied":7696,"Ġclearly":7697,"Ġfills":7698,"Ġaddress":7699,"Ġfishes":7700,"Ġcovering":7701,"Ġmagnif":7702,"Ġfrowning":7703,"ivia":7704,"Ġcuddles":7705,"Ġsurfing":7706,"Ġmillion":7707,"Ġexercises":7708,"Ġbreathing":7709,"Ġstroke":7710,"Ġpurrs":7711,"Ġdiscussing":7712,"Ġbrushing":7713,"ĠMaddy":7714,"ĠQuick":7715,"Ġoppos":7716,"Ġinspired":7717,"Ġconductor":7718,"steps":7719,"Ġtissue":7720,"Ġtarget":7721,"Ġveggies":7722,"Penny":7723,"water":7724,"Ġdep":7725,"ening":7726,"Ġnur":7727,"Ġrout":7728,"Ġsoaking":7729,"Ġkittens":7730,"Ġseals":7731,"Ġcanvas":7732,"Ġalien":7733,"Ġtreated":7734,"Ġthanking":7735,"ĠFighting":7736,"Ġtrans":7737,"Ġuntie":7738,"ĠCle":7739,"asty":7740,"ÅĵHey":7741,"Ġdoorway":7742,"ĠPaula":7743,"ĠRock":7744,"Ġnights":7745,"ĠThatÃ¢":7746,"Ġsmelling":7747,"ĠKelly":7748,"Ġsparks":7749,"Ġsprout":7750,"Ġpackages":7751,"Ġdesper":7752,"ails":7753,"Ġpuzzled":7754,"Ġfootsteps":7755,"Ġtoolbox":7756,"ĠAli":7757,"ĠAlison":7758,"Ġreminding":7759,"Ġtidying":7760,"Ġwisely":7761,"Ġsqueezing":7762,"ĠUp":7763,"Ġtravels":7764,"Ġgrandfather":7765,"Ġpigeons":7766,"Ġloading":7767,"Ġartwork":7768,"Ġmagazines":7769,"Ġdisplayed":7770,"Ġprevented":7771,"Chloe":7772,"Ġsqueak":7773,"Ġadmiration":7774,"Ġglobe":7775,"ĠMaya":7776,"Ġmaterial":7777,"Ġexperienced":7778,"Ġrefuse":7779,"Ġoccasion":7780,"eeling":7781,"Ġconvinced":7782,"Ġreunited":7783,"Hannah":7784,"bage":7785,"cent":7786,"mi":7787,"pen":7788,"Ġsou":7789,"rew":7790,"Ġcoug":7791,"Ġheaven":7792,"Ġmoo":7793,"ĠTake":7794,"arrow":7795,"Ġger":7796,"Ġnasty":7797,"Ġsav":7798,"ĠSleep":7799,"ighing":7800,"Ġrays":7801,"Ġmommies":7802,"ĠMichael":7803,"Ġank":7804,"Ġspy":7805,"lph":7806,"aret":7807,"Ġgoodby":7808,"Ġchin":7809,"Ġchilly":7810,"Ġblinking":7811,"inkle":7812,"Ġfond":7813,"ÅĵWhere":7814,"ĠPu":7815,"Ġdressing":7816,"Ġduckling":7817,"Ġswimmer":7818,"ordinary":7819,"Ġdistract":7820,"Ġdespite":7821,"Ġimaginary":7822,"Ġhonking":7823,"Ġshrunk":7824,"Ġchocolates":7825,"Ġbanged":7826,"Ġpleaded":7827,"Ġsolving":7828,"Ġtrusting":7829,"Ġgarbage":7830,"Ġcrowns":7831,"Ġcamel":7832,"Ġguessing":7833,"Ġextraordinary":7834,"Ġsending":7835,"...\"":7836,"Ġrotting":7837,"Ġvehicles":7838,"Ġsqueaked":7839,"Ġsewing":7840,"Ġaccomplished":7841,"Ġswayed":7842,"Ġsternly":7843,"Clara":7844,"ĠTessa":7845,"Two":7846,"Ġmunching":7847,"Ġevil":7848,"Ġopposite":7849,"Ġgoodbyes":7850,"Claire":7851,"Dear":7852,"Take":7853,"fia":7854,"gain":7855,"hind":7856,"vant":7857,"vroom":7858,"hew":7859,"Ġbamboo":7860,"isions":7861,"idence":7862,"ori":7863,"ĠHallow":7864,"Ġrin":7865,"ĠIm":7866,"Ġwithin":7867,"ĠBri":7868,"ĠBaa":7869,"Ġdod":7870,"Ġdoves":7871,"Ġwhoo":7872,"ĠMaisy":7873,"Ġloc":7874,"Ġspat":7875,"Ġexch":7876,"Ġknots":7877,"Ġmanners":7878,"Ġlapt":7879,"Ġlasers":7880,"Ġflipped":7881,"ilda":7882,"ÅĵBut":7883,"Ġdisc":7884,"ĠNora":7885,"ĠDog":7886,"airy":7887,"uggy":7888,"Ġcomforting":7889,"screen":7890,"Ġgenerosity":7891,"Ġscrub":7892,"Ġprayers":7893,"ĠSnap":7894,"Ġwealth":7895,"Ġenviron":7896,"ĠFinn":7897,"ĠPepper":7898,"Ġemerged":7899,"Ġobeyed":7900,"Ġcubes":7901,"ĠMaddie":7902,"Ġchipmunk":7903,"Ġcustomers":7904,"citedly":7905,"Ġmasterp":7906,"Ġresponded":7907,"Ġnibbled":7908,"Ġcocoon":7909,"Ġgesture":7910,"ĠHalloween":7911,"Ġenvironment":7912,"Any":7913,"Watch":7914,"eedy":7915,"oc":7916,"rink":7917,"Ġhen":7918,"Ġmood":7919,"Ġmaker":7920,"Ġnatur":7921,"ĠSuper":7922,"oration":7923,"Ġinter":7924,"Ġsheets":7925,"ittered":7926,"lyn":7927,"icate":7928,"Ġbride":7929,"ĠWelcome":7930,"Ġdecl":7931,"Ġchanges":7932,"Ġsunscreen":7933,"Ġbrains":7934,"Ġdonkey":7935,"Ġsurprising":7936,"acles":7937,"Ġbusiness":7938,"Ġmovements":7939,"Ġmarve":7940,"Ġvisits":7941,"Ġgrows":7942,"Ġcollap":7943,"Ġafar":7944,"Ġstorms":7945,"Ġpinching":7946,"Ġdigs":7947,"Ġawful":7948,"Always":7949,"Ġunlo":7950,"Ġshovels":7951,"Ġconfidence":7952,"Ġburying":7953,"Ġpeeled":7954,"Ġencouragement":7955,"Ġpaddling":7956,"Ġglittering":7957,"Ġforgiving":7958,"intment":7959,"Ġtype":7960,"Ġwrinkled":7961,"Surprise":7962,"Ġankle":7963,"Ġlaptop":7964,"Jess":7965,"Rosie":7966,"dress":7967,"even":7968,"ps":7969,"we":7970,"worm":7971,"Ġting":7972,"Ġwakes":7973,"rect":7974,"ĠTaking":7975,"Ġgroom":7976,"ider":7977,"ats":7978,"ĠSl":7979,"ĠSimon":7980,"anish":7981,"immered":7982,"Ġform":7983,"elie":7984,"rying":7985,"artled":7986,"ĠWilliam":7987,"Ġwhoever":7988,"Ġdecisions":7989,"Ġflick":7990,"Ġflip":7991,"Ġwaters":7992,"ipes":7993,"ĠRyan":7994,"Ġforgives":7995,"issa":7996,"Ġbits":7997,"Ġhairdress":7998,"boards":7999,"Ġlessons":8000,"Ġfloors":8001,"Ġtighter":8002,"Ġcompared":8003,"ĠJennie":8004,"Ġcupcake":8005,"Ġjobs":8006,"ĠOther":8007,"Ġtroubles":8008,"Ġpresented":8009,"Ġmattered":8010,"Ġrecorder":8011,"Ġprick":8012,"Ġsweep":8013,"Ġpandas":8014,"ĠSnowman":8015,"Ġtires":8016,"Ġrepeating":8017,"Ġspells":8018,"Ġlipstick":8019,"Ġlanguages":8020,"Ġbothering":8021,"Ġsnaps":8022,"ĠOlivia":8023,"ĠMeg":8024,"Ġleapt":8025,"Ġbruises":8026,"Ġcorrect":8027,"Ġnearest":8028,"Ġsadder":8029,"Ġthorns":8030,"Ġconflict":8031,"Ġnodding":8032,"Ġtransf":8033,"Ġgerms":8034,"Ġnatural":8035,"Ġhairdresser":8036,"Buddy":8037,"Buzz":8038,"Boys":8039,"Get":8040,"Jessie":8041,"Pl":8042,"evin":8043,"lt":8044,"line":8045,"pes":8046,"what":8047,"Ġsill":8048,"Ġsigning":8049,"Ġtossed":8050,"Ġbou":8051,"ouched":8052,"Ġdump":8053,"Ġpins":8054,"lets":8055,"Ġsteth":8056,"Ġshall":8057,"Ġrely":8058,"Ġloses":8059,"ĠgirlÃ¢":8060,"Ġclues":8061,"Ġalthough":8062,"Ġscent":8063,"Ġscores":8064,"âĤ¬,":8065,"ĠLooking":8066,"Ġpose":8067,"Ġexploration":8068,"ÅĵMaybe":8069,"ÅĵSee":8070,"Ġwinding":8071,"ĠGre":8072,"acle":8073,"Ġclosing":8074,"Ġleaking":8075,"Ġcracks":8076,"Ġparted":8077,"Ġdripping":8078,"Ġsnowy":8079,"spe":8080,"Ġdesigning":8081,"Ġsurv":8082,"Ġself":8083,"ĠBruce":8084,"ĠBecky":8085,"Ġadds":8086,"Ġjogger":8087,"Ġhamster":8088,"Ġfrowns":8089,"Ġsweat":8090,"Ġcombed":8091,"Ġtaped":8092,"Ġcomputers":8093,"Ġwindowsill":8094,"Ġunpacking":8095,"Ġhooks":8096,"Ġtearing":8097,"ĠPatty":8098,"Ġobserving":8099,"Ġexplains":8100,"Ġapplause":8101,"Ġluckily":8102,"Ġburger":8103,"Ġfreezing":8104,"Ġpurr":8105,"Ġspits":8106,"ĠVroom":8107,"Ġoutfits":8108,"Ġseagulls":8109,"Ġtextures":8110,"ĠNana":8111,"Ġcottage":8112,"Ġinstruments":8113,"Ġexploded":8114,"Brown":8115,"ĠSkip":8116,"Ġbouqu":8117,"Ġstethos":8118,"Bang":8119,"Joy":8120,"Since":8121,"belt":8122,"bank":8123,"baby":8124,"jack":8125,"ker":8126,"Ġcongratul":8127,"inging":8128,"Ġgall":8129,"Ġyel":8130,"Ġrowed":8131,"ĠBra":8132,"ĠBecause":8133,"Ġlies":8134,"Ġshallow":8135,"Ġshorter":8136,"Ġscri":8137,"Ġfailed":8138,"ĠYouÃ¢":8139,"Ġcarries":8140,"ĠLia":8141,"Ġcares":8142,"ĠDespite":8143,"antha":8144,"bbling":8145,"anda":8146,"Ġstrum":8147,"Ġsnapping":8148,"ortunately":8149,"ĠJoanna":8150,"aste":8151,"ÅĵThe":8152,"ÅĵWho":8153,"bee":8154,"LetÃ¢":8155,"Ġcompete":8156,"ĠKaty":8157,"Ġprod":8158,"Ġcaw":8159,"Ġgiggles":8160,"ĠAlbert":8161,"Ġsprays":8162,"Ġrobots":8163,"Ġstretches":8164,"Ġ''":8165,"Ġclassmates":8166,"Ġwiser":8167,"ĠZoey":8168,"Meanwhile":8169,"Ġapologised":8170,"Ġscarecrow":8171,"Ġsweaty":8172,"Ġbeetles":8173,"Ġmember":8174,"Ġerase":8175,"Ġstamped":8176,"Ġscooters":8177,"Ġfilms":8178,"Ġbeeped":8179,"ĠRoger":8180,"Ġtubes":8181,"Ġtraveling":8182,"Ġlumberjack":8183,"Ġbothered":8184,"Ġsimply":8185,"Ġrepeats":8186,"Ġsirens":8187,"Ġfocus":8188,"asmine":8189,"Ġcotton":8190,"ĠLibby":8191}